<pad>	0
<unk>	0
<s>	0
</s>	0
को	-0
▁स	-1
मा	-2
्र	-3
▁प	-4
न्	-5
का	-6
र्	-7
▁र	-8
▁ग	-9
्य	-10
ला	-11
▁व	-12
▁अ	-13
▁भ	-14
▁क	-15
▁न	-16
▁ब	-17
ले	-18
▁ह	-19
▁ज	-20
▁म	-21
ार	-22
▁य	-23
हर	-24
▁द	-25
▁उ	-26
▁प्र	-27
िय	-28
ने	-29
स्	-30
ाल	-31
▁त	-32
हरू	-33
ित	-34
▁वि	-35
▁थ	-36
▁आ	-37
ान	-38
क्	-39
▁।	-40
▁छ	-41
▁मा	-42
▁गर	-43
म्	-44
ति	-45
ना	-46
िए	-47
▁ए	-48
िक	-49
लाई	-50
्व	-51
त्र	-52
▁श	-53
▁रा	-54
▁२	-55
नि	-56
▁च	-57
ल्	-58
▁१	-59
ता	-60
▁गर्	-61
्या	-62
ियो	-63
ङ्	-64
▁का	-65
ुर	-66
▁हु	-67
न्द	-68
▁यस	-69
न्छ	-70
▁ल	-71
वा	-72
ेको	-73
था	-74
▁ख	-75
▁हो	-76
पाल	-77
▁उन	-78
्ट	-79
▁२०	-80
त्	-81
▁थियो	-82
▁सा	-83
▁ने	-84
▁भए	-85
बा	-86
▁एक	-87
▁फ	-88
रा	-89
िन	-90
ेर	-91
कार	-92
क्ष	-93
नु	-94
▁ला	-95
हा	-96
▁नेपाल	-97
▁यो	-98
▁नि	-99
ेश	-100
▁सं	-101
▁पा	-102
हि	-103
यो	-104
िल्	-105
▁सम	-106
▁स्	-107
▁थिए	-108
्च	-109
लो	-110
▁रह	-111
ष्ट	-112
▁को	-113
▁पनि	-114
द्	-115
▁ध	-116
ङ्ग	-117
स्त	-118
▁राज	-119
बाट	-120
ेका	-121
ाउ	-122
री	-123
ेल	-124
▁सम्	-125
▁क्	-126
िएको	-127
▁सन्	-128
ाम	-129
▁लाग	-130
ूप	-131
दा	-132
▁ट	-133
िल्ला	-134
ुन	-135
रि	-136
न्त	-137
▁उप	-138
या	-139
वि	-140
▁वा	-141
▁दे	-142
िका	-143
ती	-144
▁क्ष	-145
▁इ	-146
▁भएको	-147
▁ड	-148
▁१९	-149
ली	-150
▁रूप	-151
▁विश	-152
▁भा	-153
▁तथा	-154
की	-155
िम	-156
नी	-157
ेत्र	-158
द्ध	-159
रण	-160
सा	-161
िया	-162
भा	-163
र्व	-164
हरूको	-165
▁क्षेत्र	-166
▁लागि	-167
▁बा	-168
▁घ	-169
▁छन्	-170
्न	-171
छि	-172
▁त्य	-173
▁जिल्ला	-174
्रा	-175
▁रूपमा	-176
▁भने	-177
ध्य	-178
र्य	-179
ष्ट्र	-180
टा	-181
▁सु	-182
ारा	-183
पा	-184
▁के	-185
▁रहेको	-186
▁वर्	-187
▁२०१	-188
▁मु	-189
▁सि	-190
धि	-191
▁से	-192
जा	-193
▁निर्	-194
▁ले	-195
▁जन	-196
ानी	-197
खि	-198
▁आफ	-199
क्त	-200
एको	-201
▁उत्	-202
न्य	-203
ित्र	-204
▁अनु	-205
दै	-206
्ड	-207
▁भार	-208
▁विश्व	-209
▁हुन्छ	-210
ँग	-211
▁प्रा	-212
▁पु	-213
ाउँ	-214
भि	-215
▁उनी	-216
दी	-217
कि	-218
प्	-219
ही	-220
न्त्र	-221
ब्	-222
स्थ	-223
िर	-224
▁पू	-225
ण्ड	-226
्रो	-227
ञ्च	-228
▁जस	-229
देश	-230
म्प	-231
▁,	-232
▁गर्न	-233
द्य	-234
▁स्व	-235
न्न	-236
न्दा	-237
▁गरिएको	-238
योग	-239
▁गर्ने	-240
▁ठ	-241
▁अव	-242
दछ	-243
न्ध	-244
▁राष्ट्र	-245
▁दु	-246
▁उनले	-247
र्थ	-248
ुट	-249
क्र	-250
सार	-251
गा	-252
गर	-253
▁गरेको	-254
▁गा	-255
▁गरेका	-256
न्द्र	-257
ष्	-258
र्म	-259
▁स्थ	-260
म्ब	-261
धार	-262
िस	-263
ास	-264
▁नाम	-265
▁बना	-266
▁गरे	-267
ीको	-268
डा	-269
▁हुन्	-270
▁३	-271
िल	-272
्रे	-273
बै	-274
▁परि	-275
सँग	-276
▁पहि	-277
▁पर्	-278
ालय	-279
हरूमा	-280
▁जा	-281
ुरु	-282
▁आफ्न	-283
मान	-284
▁गो	-285
त्य	-286
▁कु	-287
▁अन्त	-288
▁प्रति	-289
कृ	-290
कास	-291
जन	-292
षा	-293
▁लि	-294
▁लेख	-295
▁व्य	-296
▁सबै	-297
▁त्यस	-298
प्र	-299
स्था	-300
▁हि	-301
एका	-302
▁कार्य	-303
्री	-304
ेला	-305
मु	-306
▁४	-307
▁विकास	-308
हाँ	-309
जी	-310
▁२००	-311
▁आफ्नो	-312
िट	-313
पुर	-314
▁गरि	-315
ेट	-316
सी	-317
▁ना	-318
डी	-319
ख्या	-320
▁चल	-321
▁यु	-322
दे	-323
▁देखि	-324
र्ण	-325
▁कि	-326
नको	-327
द्व	-328
पछि	-329
श्च	-330
▁वर्ष	-331
दि	-332
ारी	-333
क्ति	-334
▁महि	-335
सं	-336
▁दिन	-337
हरूले	-338
स्ट	-339
▁नेपाली	-340
िएका	-341
िता	-342
▁नेपालको	-343
▁मह	-344
प्त	-345
हरु	-346
▁भारत	-347
▁५	-348
▁बि	-349
म्म	-350
▁दि	-351
ीत	-352
▁समा	-353
रो	-354
▁गाउँ	-355
ज्	-356
▁रो	-357
▁मध्य	-358
चित्र	-359
न्ड	-360
ाली	-361
ाइ	-362
▁जो	-363
▁उनको	-364
▁खेल	-365
▁राज्य	-366
ीन	-367
मेर	-368
लि	-369
▁शि	-370
▁पर	-371
▁यसको	-372
सि	-373
▁चलचित्र	-374
िति	-375
▁भाषा	-376
▁प्रयोग	-377
▁सर	-378
तिक	-379
ंग	-380
पालिका	-381
निन्छ	-382
▁तर	-383
▁पुर	-384
▁नै	-385
००	-386
▁पछि	-387
लको	-388
इन्	-389
▁हुने	-390
▁शा	-391
▁पहिलो	-392
र्ग	-393
खा	-394
बन्ध	-395
ोक	-396
टी	-397
पू	-398
▁अनुसार	-399
यु	-400
▁गर्दछ	-401
▁भएका	-402
▁सह	-403
नमा	-404
▁सङ्	-405
हरूलाई	-406
▁साथ	-407
▁गरी	-408
भन्दा	-409
मी	-410
▁अर्	-411
▁समय	-412
▁क्र	-413
ेरै	-414
▁पूर्व	-415
▁धेरै	-416
त्व	-417
▁राष्ट्रिय	-418
तर	-419
▁थि	-420
ज्ञ	-421
द्यालय	-422
स्थित	-423
टक	-424
ेक	-425
धान	-426
▁बढ	-427
क्रम	-428
▁मो	-429
ख्य	-430
शा	-431
तीय	-432
स्ता	-433
न्म	-434
▁जुन	-435
▁सम्म	-436
▁अन्य	-437
कारी	-438
न्ने	-439
▁पश्च	-440
सको	-441
्यो	-442
द्वारा	-443
▁मि	-444
हु	-445
बल	-446
छन्	-447
ीय	-448
फल	-449
▁भाग	-450
कु	-451
▁६	-452
क्षा	-453
▁जन्म	-454
▁एउ	-455
▁स्था	-456
ेन	-457
ेत	-458
मुख	-459
▁थिइन्	-460
▁महिला	-461
ेस	-462
ग्	-463
न्ट	-464
▁अमेर	-465
वन	-466
▁हुन	-467
णा	-468
▁सो	-469
▁महा	-470
▁पाइ	-471
क्स	-472
ाना	-473
▁हा	-474
▁सू	-475
ेद	-476
ूल	-477
सङ्	-478
क्षि	-479
▁गु	-480
रु	-481
▁झ	-482
▁या	-483
न्या	-484
▁अभि	-485
▁राजा	-486
▁देश	-487
▁राख	-488
▁ओ	-489
वार	-490
▁सद	-491
च्च	-492
जना	-493
▁स्थाप	-494
टो	-495
▁रहेका	-496
▁बु	-497
दान	-498
▁कारण	-499
रको	-500
▁गरिन्छ	-501
▁अवस्थित	-502
▁फुट	-503
न्स	-504
▁कुन	-505
माण	-506
▁नगर	-507
▁एउटा	-508
▁७	-509
सम्म	-510
▁केही	-511
▁मुख्य	-512
▁भू	-513
▁मात्र	-514
ैन	-515
ोल	-516
वी	-517
ौँ	-518
ुरा	-519
▁दक्षि	-520
्रह	-521
उने	-522
भिन्न	-523
▁जनसङ्	-524
▁कृ	-525
▁जनसङ्ख्या	-526
▁दक्षिण	-527
चा	-528
र्क	-529
करण	-530
▁मे	-531
▁विभिन्न	-532
▁समिति	-533
▁कुनै	-534
▁छो	-535
▁स्थान	-536
स्य	-537
▁बनाइ	-538
▁केन्द्र	-539
काश	-540
▁बो	-541
▁जी	-542
जार	-543
▁बङ्ग	-544
्यु	-545
▁काम	-546
र्ड	-547
▁भारतीय	-548
म्बर	-549
▁जिल्लाको	-550
▁दुई	-551
▁साल	-552
▁प्राप्त	-553
▁जिल्लामा	-554
▁सम्प	-555
▁मानि	-556
ष्ठ	-557
▁भन्ने	-558
▁रु	-559
एर	-560
▁कम्प	-561
▁लग	-562
▁भन्दा	-563
हित	-564
र्श	-565
▁सम्बन्ध	-566
▁निर्वा	-567
▁सबैभन्दा	-568
▁भयो	-569
▁व्या	-570
▁प्रमुख	-571
चार	-572
▁फुटबल	-573
▁सुरु	-574
्ने	-575
▁कम	-576
ञ्	-577
▁घर	-578
ेड	-579
लेख	-580
देखि	-581
▁मन्द	-582
िनी	-583
▁१८	-584
▁चा	-585
▁आदि	-586
▁उपज	-587
उँ	-588
भाग	-589
र्ष	-590
ेष	-591
्रि	-592
पि	-593
▁गीत	-594
▁उपजिल्ला	-595
पाद	-596
वेश	-597
▁संस्	-598
ीमा	-599
ंश	-600
▁सङ्ग	-601
▁सेवा	-602
राज	-603
▁८	-604
▁मन्दिर	-605
▁व्यव	-606
र्ता	-607
▁ठू	-608
यन	-609
पति	-610
▁द्व	-611
▁ता	-612
▁लगा	-613
▁था	-614
▁साम	-615
▁सक्	-616
▁अन्तर	-617
▁श्री	-618
▁औ	-619
▁पश्चिम	-620
काल	-621
स्तै	-622
▁पार्	-623
ङ्क	-624
तन्त्र	-625
▁पो	-626
▁अधि	-627
▁उत्तर	-628
▁दो	-629
भाव	-630
▁गर्दै	-631
▁राम	-632
▁ढ	-633
▁खो	-634
▁मान	-635
▁हाल	-636
युक्त	-637
▁क्या	-638
मो	-639
▁आधार	-640
▁सामा	-641
धा	-642
▁हिन्द	-643
▁बी	-644
न्ति	-645
▁भनिन्छ	-646
▁सरकार	-647
र्फ	-648
▁दा	-649
▁सञ्च	-650
डि	-651
▁धर्म	-652
▁निय	-653
▁चि	-654
पूर्ण	-655
▁१९९	-656
▁जना	-657
▁क्षेत्रमा	-658
▁स्थापना	-659
▁निर्वाच	-660
सो	-661
▁सदस्य	-662
ुल	-663
▁सफल	-664
▁सुधार	-665
उन	-666
ेम्बर	-667
मि	-668
▁खे	-669
▁प्रकाश	-670
▁उक्त	-671
▁अफ	-672
▁प्रकार	-673
▁अध	-674
▁मानिस	-675
चना	-676
▁कम्पनी	-677
▁गर्नु	-678
पर्	-679
ोर	-680
्यान	-681
▁बने	-682
▁स्ट	-683
याँ	-684
विद्यालय	-685
ँच	-686
▁अभ	-687
▁हुँ	-688
▁नगरपालिका	-689
जे	-690
न्थ	-691
▁यसलाई	-692
त्री	-693
ष्ण	-694
▁काठ	-695
▁विश्वविद्यालय	-696
▁देव	-697
ुक	-698
तिहा	-699
ियन	-700
तको	-701
र्च	-702
जिक	-703
व्य	-704
▁अध्य	-705
▁बे	-706
▁निर्माण	-707
थि	-708
▁ठूलो	-709
▁सकि	-710
▁टो	-711
▁विशेष	-712
श्य	-713
▁९	-714
त्म	-715
िकी	-716
▁१०	-717
▁प्रश	-718
ते	-719
क्षण	-720
▁कुल	-721
▁अर्थ	-722
▁यसले	-723
▁प्रदेश	-724
ोष	-725
▁सहर	-726
▁यहाँ	-727
▁वै	-728
ताको	-729
न्त्री	-730
ब्द	-731
▁खेला	-732
▁खा	-733
▁सङ्घ	-734
स्कार	-735
ेब	-736
गत	-737
तिहास	-738
▁देख	-739
▁व्यक्ति	-740
▁उनलाई	-741
लब	-742
▁आयो	-743
स्तु	-744
▁राजनी	-745
▁मन	-746
▁लेखहरू	-747
ानको	-748
ियोग	-749
ल्या	-750
▁डि	-751
▁बनाइएका	-752
▁ति	-753
रमा	-754
▁पर्ने	-755
पी	-756
▁अङ्ग	-757
ष्ट्रिय	-758
ोग	-759
यत	-760
▁२०७	-761
ूह	-762
ित्व	-763
▁प्रत	-764
के	-765
र्त	-766
ञ्ज	-767
▁नदी	-768
कै	-769
्छ	-770
▁जसले	-771
▁बढी	-772
▁पुरस्कार	-773
▁बै	-774
▁उच्च	-775
▁मृ	-776
▁काठमा	-777
लमा	-778
▁लोक	-779
▁यी	-780
▁सेना	-781
ाँ	-782
इट	-783
स्तो	-784
हार	-785
र्ट	-786
▁समु	-787
▁सुधारिएका	-788
ची	-789
ंह	-790
▁कुरा	-791
▁बेला	-792
▁नेपालमा	-793
▁उत्पाद	-794
▁शास	-795
दाय	-796
▁पुग	-797
▁१९८	-798
रब	-799
▁प्रतियोग	-800
वाद	-801
▁ठाउँ	-802
लादेश	-803
▁ई	-804
िटर	-805
▁तीन	-806
हित्य	-807
▁प्रधान	-808
▁खेलाडी	-809
वादी	-810
▁शब्द	-811
थन	-812
ाउने	-813
ानो	-814
ट्ट	-815
ुवा	-816
▁पाइन्छ	-817
दुर	-818
शी	-819
▁बाल	-820
▁प्रतियोगिता	-821
▁भारतको	-822
र्स	-823
▁युद्ध	-824
स्त्र	-825
▁बङ्गलादेश	-826
▁संयुक्त	-827
▁गावि	-828
▁संस्था	-829
▁अभिने	-830
▁पानी	-831
▁जसमा	-832
कको	-833
किस्त	-834
▁गर्दा	-835
▁सकिन्छ	-836
ाउन	-837
▁जित	-838
▁काठमाड	-839
▁एस	-840
ोप	-841
▁साहित्य	-842
▁वटा	-843
त्त्व	-844
▁अन्तर्रा	-845
यर	-846
▁सञ्चाल	-847
ब्ल	-848
दैन	-849
▁पद	-850
तिको	-851
▁नयाँ	-852
▁गाउँपालिका	-853
▁भि	-854
▁हे	-855
▁पाकिस्त	-856
▁अन्तर्राष्ट्रिय	-857
बर	-858
फा	-859
▁धा	-860
▁जु	-861
▁गरेर	-862
स्रो	-863
▁वर्ग	-864
▁चौ	-865
▁अञ्च	-866
▁पि	-867
वर	-868
▁समूह	-869
▁समयमा	-870
▁घोष	-871
▁सर्व	-872
से	-873
ारे	-874
पु	-875
म्भ	-876
▁क्लब	-877
▁पटक	-878
▁१५	-879
न्यास	-880
ज्ञान	-881
▁ग्र	-882
▁मध्ये	-883
इन	-884
जि	-885
▁हर	-886
्स	-887
ममा	-888
▁समेत	-889
▁१९७	-890
▁१२	-891
▁उल्	-892
▁पुन	-893
बी	-894
जु	-895
त्रा	-896
▁सुर	-897
र्गत	-898
▁विकि	-899
कृत	-900
वाह	-901
▁आएको	-902
▁आव	-903
▁बीच	-904
▁पत्र	-905
▁गरेकी	-906
थम	-907
▁पार	-908
▁सम्पदा	-909
▁प्रत्य	-910
▁हुनु	-911
▁व्यवस्था	-912
▁नो	-913
▁जस्तै	-914
▁पृ	-915
▁टोली	-916
▁ती	-917
▁रे	-918
ौं	-919
वल	-920
▁प्रजा	-921
▁विद्यालय	-922
▁त्रि	-923
▁०	-924
णना	-925
▁उपन्यास	-926
▁मृत्य	-927
▁अप	-928
णी	-929
र्न	-930
▁ल्या	-931
▁साथै	-932
▁अमेरिकी	-933
▁छैन	-934
▁महत्त्व	-935
▁दोस्रो	-936
▁प्रदान	-937
ग्र	-938
▁मृत्यु	-939
▁२०६	-940
▁उपा	-941
▁चार	-942
▁रि	-943
▁टिम	-944
▁छा	-945
ुरुष	-946
्रेजी	-947
ूर	-948
▁मूल	-949
दर्श	-950
▁हुन्छन्	-951
▁जि	-952
▁गर्छ	-953
▁उत्पादन	-954
▁१७	-955
त्मक	-956
टर	-957
ेली	-958
ैले	-959
▁जे	-960
इएको	-961
▁गोल	-962
हरूका	-963
▁एव	-964
▁पार्टी	-965
समा	-966
यक	-967
▁दृ	-968
▁कार्यक्रम	-969
▁विष	-970
▁अन्तर्गत	-971
▁कथा	-972
हिले	-973
▁अन	-974
▁महिना	-975
▁२०२	-976
काली	-977
▁ऐ	-978
▁म्या	-979
पन	-980
कर्ता	-981
रह	-982
▁११	-983
▁पर्दछ	-984
्रु	-985
▁पुरुष	-986
ठन	-987
▁स्वा	-988
▁लाई	-989
हादुर	-990
्रम	-991
▁१६	-992
▁द्वारा	-993
वान	-994
▁फि	-995
मन्त्री	-996
ोट	-997
▁त्यो	-998
▁उनका	-999
तमा	-1000
िमा	-1001
▁आइ	-1002
धिक	-1003
श्व	-1004
▁बजार	-1005
▁निक	-1006
्म	-1007
धन	-1008
▁अमेरिका	-1009
▁सर्	-1010
ीर	-1011
▁अर्को	-1012
▁सभा	-1013
ेन्द्र	-1014
▁जनग	-1015
▁क्याम्प	-1016
▁समाज	-1017
▁खेलमा	-1018
तो	-1019
▁ऋ	-1020
▁परिवार	-1021
▁जहाँ	-1022
▁अस	-1023
ित्	-1024
▁व्याप	-1025
▁मौ	-1026
▁विद	-1027
▁जनगणना	-1028
लामा	-1029
▁नामक	-1030
त्या	-1031
ोन	-1032
▁जसको	-1033
▁रोग	-1034
▁शाह	-1035
▁सार्व	-1036
▁निर्वाचन	-1037
▁मानिन्छ	-1038
भु	-1039
न्ज	-1040
▁जान	-1041
टन	-1042
मिका	-1043
▁उत्त	-1044
▁अवस्था	-1045
देव	-1046
नाले	-1047
▁काठमाडौँ	-1048
▁प्रतिनि	-1049
लग	-1050
ामी	-1051
▁शु	-1052
िकेट	-1053
ानीय	-1054
▁योग	-1055
ल्ल	-1056
▁छन	-1057
▁खु	-1058
▁स्थानीय	-1059
तृ	-1060
▁डा	-1061
▁१४	-1062
▁उल्लेख	-1063
▁प्रभाव	-1064
▁अङ्ग्रेजी	-1065
तया	-1066
ग्री	-1067
▁क्रिकेट	-1068
धिकार	-1069
▁दश	-1070
च्छ	-1071
▁शिक्षा	-1072
▁संग	-1073
नले	-1074
पर	-1075
षि	-1076
वै	-1077
▁वर्षको	-1078
▁भित्र	-1079
▁सामान्य	-1080
▁कला	-1081
िएर	-1082
मार	-1083
▁बस्	-1084
▁भग	-1085
▁स्वतन्त्र	-1086
कृतिक	-1087
जित	-1088
मको	-1089
▁जस्ता	-1090
▁निर्देश	-1091
पमा	-1092
▁लिग	-1093
र्मा	-1094
▁मै	-1095
न्छन्	-1096
▁पर्व	-1097
▁इतिहास	-1098
क्रमण	-1099
▁चु	-1100
▁न्य	-1101
▁संर	-1102
▁स्प	-1103
▁पुस्त	-1104
▁जब	-1105
▁निम्	-1106
▁सालमा	-1107
स्क	-1108
▁शक्ति	-1109
रुद्ध	-1110
▁क्याम्पस	-1111
धी	-1112
मध्य	-1113
र्ति	-1114
▁पाँच	-1115
▁ब्रा	-1116
▁एवं	-1117
▁विभाग	-1118
ङ्गा	-1119
द्र	-1120
▁समावेश	-1121
▁गते	-1122
द्योग	-1123
▁ब्र	-1124
▁गण	-1125
▁अधिकार	-1126
जनिक	-1127
प्ट	-1128
▁जोड	-1129
▁बाँ	-1130
▁जीव	-1131
श्	-1132
कृति	-1133
▁भनेर	-1134
साय	-1135
हो	-1136
वे	-1137
▁घट	-1138
▁ताल	-1139
▁यसमा	-1140
▁किलो	-1141
छा	-1142
विक	-1143
▁सार्वजनिक	-1144
वर्त	-1145
▁विषय	-1146
भग	-1147
▁घोषणा	-1148
सु	-1149
▁सूची	-1150
▁शिव	-1151
▁छोरा	-1152
▁पूर्ण	-1153
▁२०१५	-1154
▁मानव	-1155
▁किन	-1156
▁१३	-1157
क्षर	-1158
यण	-1159
▁सिंह	-1160
▁क्षेत्रको	-1161
तु	-1162
▁डे	-1163
लु	-1164
▁विकिथन	-1165
▁लगायत	-1166
▁बनेको	-1167
▁भूमिका	-1168
डे	-1169
लाको	-1170
▁२०१६	-1171
▁हिमा	-1172
▁राजनीतिक	-1173
▁दल	-1174
▁मन्त्र	-1175
▁टा	-1176
गु	-1177
थे	-1178
▁सञ्चालन	-1179
▁१९६	-1180
▁माध्य	-1181
▁भु	-1182
▁कव	-1183
▁लु	-1184
नेट	-1185
िरह	-1186
▁सामाजिक	-1187
▁अध्ययन	-1188
▁जीवन	-1189
त्ति	-1190
ल्ने	-1191
ज्य	-1192
मे	-1193
कर	-1194
घा	-1195
▁आर्थ	-1196
ञ्चल	-1197
▁सहयोग	-1198
▁जसलाई	-1199
०००	-1200
कृष्ट	-1201
▁पूर्वी	-1202
शु	-1203
▁२०५	-1204
▁तत्	-1205
ठा	-1206
द्धि	-1207
▁युर	-1208
चि	-1209
▁पृथ	-1210
नाथ	-1211
▁लगभग	-1212
▁गर्दछन्	-1213
टि	-1214
▁बता	-1215
▁च्या	-1216
▁प्रण	-1217
▁आर्थिक	-1218
ताब्	-1219
▁विभा	-1220
▁शहर	-1221
वरी	-1222
▁अभिन	-1223
ङ्ख	-1224
▁लाख	-1225
▁अभिनेत्री	-1226
▁आयोजना	-1227
नामा	-1228
ियाको	-1229
मन	-1230
र्मिक	-1231
▁गाविस	-1232
▁वन	-1233
▁अञ्चलको	-1234
▁स्थानमा	-1235
चित	-1236
▁वृ	-1237
▁हजार	-1238
▁टेल	-1239
श्यक	-1240
विधान	-1241
▁गर्छन्	-1242
तम	-1243
खित	-1244
▁नभ	-1245
▁थापा	-1246
▁सी	-1247
▁बसो	-1248
▁प्रकारको	-1249
▁पहा	-1250
▁श्रे	-1251
झा	-1252
साद	-1253
▁अक्	-1254
ब्ल्यु	-1255
▁बाह	-1256
गो	-1257
िन्	-1258
▁२५	-1259
▁गाँ	-1260
▁पूजा	-1261
..	-1262
▁अप्र	-1263
मध्ये	-1264
▁माध्यम	-1265
▁भो	-1266
म्परा	-1267
▁परिष	-1268
▁धार्मिक	-1269
▁विरुद्ध	-1270
▁संविधान	-1271
▁त्यसपछि	-1272
बास	-1273
पनि	-1274
▁सक	-1275
▁अग	-1276
धानी	-1277
भर	-1278
▁२०११	-1279
ताब्दी	-1280
कालीन	-1281
▁पहिले	-1282
▁सक्छ	-1283
सले	-1284
चल	-1285
▁जल	-1286
सन	-1287
दार	-1288
बि	-1289
ल्ला	-1290
▁परम्परा	-1291
मै	-1292
▁पाल	-1293
▁बहु	-1294
▁आफ्	-1295
▁बन्द	-1296
▁१९५	-1297
द्धा	-1298
▁नेपालका	-1299
कोट	-1300
▁२०१४	-1301
▁हुँदै	-1302
▁पोख	-1303
▁पुरा	-1304
▁ठाउँमा	-1305
▁उत्कृष्ट	-1306
स्प	-1307
बु	-1308
▁आवश्यक	-1309
▁विद्या	-1310
▁आधिकार	-1311
▁प्रवेश	-1312
घि	-1313
मित	-1314
▁राजधानी	-1315
त्ता	-1316
ष्टि	-1317
▁पाइने	-1318
▁आधिकारिक	-1319
▁ब्या	-1320
▁श्र	-1321
▁आमा	-1322
▁बारे	-1323
सिद्ध	-1324
▁प्रत्येक	-1325
▁महत्त्वपूर्ण	-1326
मश	-1327
▁प्रदर्श	-1328
▁उद्	-1329
्यू	-1330
▁पृथ्व	-1331
▁वर्ण	-1332
▁शताब्दी	-1333
▁वडा	-1334
▁पक्ष	-1335
रक	-1336
बहादुर	-1337
▁फै	-1338
▁फ्रा	-1339
▁भएर	-1340
वात	-1341
▁कार्यालय	-1342
▁संस	-1343
▁शासन	-1344
▁प्रधानमन्त्री	-1345
कल	-1346
त्त	-1347
▁अथ	-1348
भू	-1349
▁उपजिल्लामा	-1350
दो	-1351
▁उद्योग	-1352
ड्	-1353
▁हिन्दु	-1354
धारण	-1355
▁मना	-1356
▁जर्म	-1357
लेर	-1358
▁पर्य	-1359
▁विवाह	-1360
▁२०१७	-1361
लेको	-1362
▁लामो	-1363
▁बाट	-1364
▁प्राय	-1365
▁सम्बन्धित	-1366
ेकी	-1367
▁३०	-1368
इन्छ	-1369
र्ज	-1370
गरी	-1371
▁आँ	-1372
▁बस	-1373
▁२१	-1374
▁कविता	-1375
▁उमेर	-1376
▁तर्फ	-1377
यी	-1378
▁गौ	-1379
▁परिवर्त	-1380
▁शै	-1381
न्तर	-1382
▁आधारित	-1383
▁मत	-1384
▁आधारमा	-1385
▁अभिनय	-1386
वरण	-1387
▁२०१८	-1388
▁संस्करण	-1389
ढा	-1390
ृङ्ख	-1391
▁नी	-1392
िनको	-1393
जेता	-1394
▁मार्च	-1395
▁डिस	-1396
▁अध्यक्ष	-1397
मिटर	-1398
▁यसै	-1399
पो	-1400
▁प्रथम	-1401
▁पुस्तक	-1402
ियर	-1403
▁प्रकाशित	-1404
▁ज्	-1405
▁अनि	-1406
कीय	-1407
▁समुदाय	-1408
▁बल	-1409
पूर्व	-1410
▁उत्प	-1411
▁त्यहाँ	-1412
ैनिक	-1413
▁१९४	-1414
स्या	-1415
▁ज्ञ	-1416
▁सँग	-1417
▁यसका	-1418
ेश्व	-1419
▁कार्	-1420
▁भाषाको	-1421
▁रू	-1422
इल	-1423
▁अधिक	-1424
्ले	-1425
स्थान	-1426
▁सहित	-1427
▁लक्ष	-1428
▁वेब	-1429
▁नेतृ	-1430
ुट्ट	-1431
वती	-1432
▁राजनीति	-1433
▁राष्ट्रपति	-1434
तार	-1435
ृत	-1436
न्दोल	-1437
▁शरी	-1438
▁अगा	-1439
डिया	-1440
▁निका	-1441
द्यु	-1442
ियाली	-1443
स्ती	-1444
▁प्राच	-1445
▁बसोबास	-1446
ब्ब	-1447
▁गाँउ	-1448
▁आध	-1449
▁फल	-1450
▁त्रिभु	-1451
▁प्रस्तु	-1452
▁अहिले	-1453
▁बाहि	-1454
▁अप्रिल	-1455
क्रिया	-1456
सक	-1457
त्यका	-1458
▁दर्श	-1459
पत्र	-1460
दर	-1461
ेरी	-1462
▁तेस	-1463
▁नेतृत्व	-1464
▁जनवरी	-1465
म्बा	-1466
▁भागमा	-1467
▁विस्त	-1468
ुरी	-1469
नका	-1470
हान	-1471
▁पाकिस्तान	-1472
▁किस	-1473
▁अर्था	-1474
▁कृष्ण	-1475
▁दिने	-1476
▁प्रसिद्ध	-1477
लेज	-1478
▁राज्यको	-1479
▁तय	-1480
ारायण	-1481
▁अभिलेख	-1482
▁आक्रमण	-1483
▁अति	-1484
▁कृति	-1485
▁दर	-1486
्वा	-1487
ून	-1488
▁चरा	-1489
▁उपत्यका	-1490
चार्य	-1491
▁सन्त	-1492
रूप	-1493
▁दिए	-1494
▁मान्य	-1495
▁पराज	-1496
▁तेस्रो	-1497
▁अल	-1498
▁वे	-1499
▁सम्मान	-1500
▁आएका	-1501
▁त्रिभुवन	-1502
ल्यान्ड	-1503
▁उपल	-1504
पको	-1505
▁उपाधि	-1506
▁चन्द्र	-1507
सम	-1508
▁सानो	-1509
▁डिसेम्बर	-1510
विधि	-1511
▁सां	-1512
▁नियन्त्र	-1513
▁खान	-1514
▁गुरु	-1515
▁काल	-1516
▁पर्छ	-1517
गम	-1518
▁अथवा	-1519
▁विज	-1520
▁२०१३	-1521
▁सङ्गीत	-1522
लाम	-1523
रे	-1524
वास	-1525
▁जाति	-1526
र्जा	-1527
▁निम्न	-1528
▁सरकारी	-1529
▁राम्रो	-1530
रू	-1531
ृह	-1532
▁२४	-1533
▁गरियो	-1534
▁प्रशास	-1535
▁रेड	-1536
तिहासिक	-1537
▁२०१९	-1538
▁युरोप	-1539
भिजन	-1540
ल्ड	-1541
▁तिब्ब	-1542
तः	-1543
▁दुवै	-1544
न्थ्यो	-1545
णि	-1546
निक	-1547
ैं	-1548
▁कलेज	-1549
▁बारेमा	-1550
▁मल्ल	-1551
िङ	-1552
▁मिल	-1553
▁प्रे	-1554
▁आफ्ना	-1555
▁तह	-1556
▁यस्तो	-1557
▁लिखित	-1558
डो	-1559
शास्त्र	-1560
▁विजेता	-1561
▁अक्टो	-1562
ालको	-1563
ुनिक	-1564
▁कस	-1565
र्थी	-1566
▁स्थापित	-1567
▁व्यापार	-1568
▁अद	-1569
▁प्रार	-1570
▁प्रणाली	-1571
▁चीन	-1572
▁तेल	-1573
▁देखिन्छ	-1574
तामा	-1575
▁कै	-1576
स्को	-1577
▁फाइ	-1578
▁जारी	-1579
▁२०१२	-1580
▁२२	-1581
▁टेलि	-1582
▁आन्दोल	-1583
▁करि	-1584
▁स्थित	-1585
▁मानिसहरू	-1586
एफ	-1587
▁आफू	-1588
▁पुर्	-1589
▁शी	-1590
▁राणा	-1591
ज्ञा	-1592
▁हास	-1593
▁विभाजन	-1594
▁न्या	-1595
▁माथि	-1596
्रान्ति	-1597
▁किलोमिटर	-1598
▁परिवर्तन	-1599
ण्ट	-1600
▁२०४	-1601
▁सम्झ	-1602
▁कल	-1603
▁बौ	-1604
▁की	-1605
▁उपलब्	-1606
▁च्याम्प	-1607
र्ने	-1608
वारी	-1609
▁अनुस	-1610
▁सय	-1611
▁अन्ति	-1612
▁२०१०	-1613
▁भी	-1614
▁पे	-1615
प्रिय	-1616
▁नजिक	-1617
▁विमान	-1618
▁क्रममा	-1619
▁फिल्	-1620
▁एका	-1621
▁देखा	-1622
▁जुलाई	-1623
णको	-1624
▁सेप्ट	-1625
▁दूर	-1626
▁पौ	-1627
▁भेट	-1628
ैर	-1629
श्र	-1630
▁मान्यता	-1631
क्क	-1632
बो	-1633
क्ट	-1634
▁रचना	-1635
▁भनेको	-1636
▁भाइ	-1637
स्थ्य	-1638
▁पञ्च	-1639
▁गरिने	-1640
तिर	-1641
▁सात	-1642
▁दृश्य	-1643
ंक	-1644
पानी	-1645
▁यात्रा	-1646
▁धन	-1647
रबार	-1648
▁सुन	-1649
▁टि	-1650
▁निर्ण	-1651
▁फा	-1652
▁५०	-1653
▁भाषामा	-1654
▁ऐतिहासिक	-1655
ल्प	-1656
▁फेब	-1657
▁कप	-1658
▁चित्र	-1659
▁आज	-1660
▁सेप्टेम्बर	-1661
उँछ	-1662
▁निकै	-1663
▁विश्वक	-1664
▁ढा	-1665
▁नोभ	-1666
▁पदा	-1667
▁वंश	-1668
▁लेखक	-1669
पक	-1670
मिन	-1671
▁चरण	-1672
हन	-1673
▁थाल	-1674
नाको	-1675
▁ठु	-1676
▁विक	-1677
▁बैङ्क	-1678
राम	-1679
▁निर्णय	-1680
सर	-1681
▁पी	-1682
ढी	-1683
र्फत	-1684
राई	-1685
वेद	-1686
▁अम	-1687
फ्ट	-1688
▁अगाडि	-1689
▁भएपछि	-1690
▁लोकप्रिय	-1691
क्षक	-1692
▁वर्त	-1693
▁२००८	-1694
▁परिषद्	-1695
▁मू	-1696
▁गति	-1697
तह	-1698
डियो	-1699
सिंह	-1700
▁थप	-1701
▁फेब्रु	-1702
▁हिन्दू	-1703
▁विचार	-1704
▁प्राचीन	-1705
उनु	-1706
▁अन्तिम	-1707
▁प्रारम्भ	-1708
▁टु	-1709
▁सहभाग	-1710
अरी	-1711
▁भइ	-1712
ताल	-1713
▁हुँदा	-1714
▁प्रतिनिध	-1715
▁वर्तमान	-1716
▁ब्रह	-1717
▁विज्ञान	-1718
पश्च	-1719
न्टर	-1720
▁सहा	-1721
▁२३	-1722
▁२००७	-1723
▁सङ्ग्रह	-1724
शि	-1725
▁दुर्	-1726
▁बौद्ध	-1727
सित	-1728
ामा	-1729
▁एन	-1730
गल	-1731
▁एसिया	-1732
यम	-1733
▁शे	-1734
▁भारतमा	-1735
▁करो	-1736
▁देवी	-1737
▁२००१	-1738
▁फेब्रुअरी	-1739
एस	-1740
▁नोभेम्बर	-1741
▁पश्चा	-1742
मारी	-1743
प्रसाद	-1744
जर	-1745
हरूबाट	-1746
हरी	-1747
▁पराजित	-1748
कमा	-1749
भार	-1750
रहेको	-1751
िल्लो	-1752
सँगै	-1753
▁थु	-1754
▁लिन	-1755
▁नियन्त्रण	-1756
ल्स	-1757
▁नागर	-1758
▁अक्टोबर	-1759
ठी	-1760
▁दू	-1761
▁अरब	-1762
▁स्थल	-1763
▁भौ	-1764
▁मुल	-1765
भित्र	-1766
लेका	-1767
▁पुरानो	-1768
▁भई	-1769
▁अघि	-1770
▁तिर	-1771
▁बुझ	-1772
▁उनीहरूको	-1773
▁भर	-1774
▁आधुनिक	-1775
▁प्रतिश	-1776
▁करोड	-1777
▁नागरिक	-1778
▁कर्म	-1779
▁लेखिएको	-1780
▁प्रतिनिधित्व	-1781
ुरू	-1782
▁शीर्ष	-1783
▁फो	-1784
दु	-1785
स्ट्र	-1786
▁प्रजाति	-1787
▁कानु	-1788
▁पढ	-1789
षण	-1790
ज्ञानिक	-1791
▁सरकारले	-1792
▁इन्ड	-1793
▁कृषि	-1794
▁डो	-1795
▁परियो	-1796
▁बङ्गलादेशको	-1797
▁टे	-1798
▁उत्तरी	-1799
▁हिमाल	-1800
▁अन्त्य	-1801
▁सामग्री	-1802
▁त्यसैले	-1803
▁विश्वास	-1804
परि	-1805
▁तुल	-1806
▁परियोजना	-1807
▁संस्कृत	-1808
▁संघ	-1809
्युनि	-1810
तन	-1811
▁२६	-1812
पर्ने	-1813
दय	-1814
२०	-1815
विधा	-1816
साइट	-1817
▁ते	-1818
▁अग्	-1819
▁फ्रान्स	-1820
▁अवस्थामा	-1821
▁आर	-1822
म्मा	-1823
▁तिनी	-1824
▁गि	-1825
▁सुरुवात	-1826
▁ग्रन्थ	-1827
र्वा	-1828
▁कर	-1829
▁२००९	-1830
▁लो	-1831
▁सदर	-1832
ष्य	-1833
ग्रह	-1834
▁उहाँ	-1835
▁राखिएको	-1836
▁वीर	-1837
▁थिएन	-1838
▁सम्पूर्ण	-1839
▁स्वास्थ्य	-1840
▁समर्थ	-1841
▁महान	-1842
▁प्रचल	-1843
▁प्रसार	-1844
▁मन्त्री	-1845
▁योजना	-1846
पर्छ	-1847
▁मिटर	-1848
ेश्वर	-1849
▁बाहिर	-1850
▁ब्	-1851
तक	-1852
▁उपलब्ध	-1853
देश्य	-1854
वटा	-1855
▁दरबार	-1856
सका	-1857
भव	-1858
▁जनता	-1859
▁प्रतिशत	-1860
▁क्षेत्रहरू	-1861
हे	-1862
▁क्षेत्रफल	-1863
▁भक्त	-1864
▁फरक	-1865
▁समस्या	-1866
▁देवता	-1867
▁छिन्	-1868
▁नेता	-1869
▁भगवान	-1870
▁संसार	-1871
नाव	-1872
िन्छ	-1873
▁सुन्द	-1874
▁चिन	-1875
▁सूर्य	-1876
सभा	-1877
▁परी	-1878
▁अफ्र	-1879
▁अझ	-1880
्याल	-1881
▁प्रया	-1882
ँदा	-1883
▁२७	-1884
▁अत्य	-1885
▁हत्या	-1886
▁सङ्ख्या	-1887
िकन	-1888
▁नं	-1889
▁वस्तु	-1890
स्कृतिक	-1891
काम	-1892
▁त्यसको	-1893
थ्यो	-1894
▁नर	-1895
▁२८	-1896
▁शृङ्ख	-1897
▁विस्तार	-1898
ध्या	-1899
▁सै	-1900
▁यद्य	-1901
▁पाठ	-1902
▁स्क	-1903
▁ब्रिट	-1904
▁प्रदर्शन	-1905
▁रङ्ग	-1906
▁सिद्धा	-1907
▁भएकी	-1908
▁1	-1909
▁करिब	-1910
▁उपयोग	-1911
▁विदेश	-1912
▁निर्वाचित	-1913
स्थिति	-1914
▁प्रस्तुत	-1915
▁यौ	-1916
▁गरा	-1917
▁खण्ड	-1918
▁हात	-1919
▁परेको	-1920
▁मार्फत	-1921
ियम	-1922
▁वास्त	-1923
▁सौ	-1924
▁देशको	-1925
न्व	-1926
ंग्रे	-1927
▁क्रान्ति	-1928
वार्ड	-1929
▁सञ्चार	-1930
लोक	-1931
सञ्च	-1932
▁२०३	-1933
▁प्रयोगकर्ता	-1934
्नु	-1935
▁धारा	-1936
▁दी	-1937
वत्	-1938
▁नव	-1939
▁गोर	-1940
▁जय	-1941
▁फिफा	-1942
इड	-1943
ारण	-1944
▁अस्प	-1945
क्षित	-1946
▁सीमा	-1947
स्थल	-1948
औँ	-1949
▁संख्या	-1950
ियान	-1951
िल्ली	-1952
थी	-1953
मति	-1954
व्या	-1955
▁फैल	-1956
ेरो	-1957
▁पछ	-1958
कम	-1959
▁प्रो	-1960
▁गठन	-1961
▁पुगेको	-1962
▁यिनी	-1963
थो	-1964
लर	-1965
जको	-1966
▁अब	-1967
यात	-1968
▁पै	-1969
सञ्चार	-1970
▁वेबसाइट	-1971
▁व्यवसाय	-1972
▁भनि	-1973
▁दिएका	-1974
▁संरक्षण	-1975
▁परिण	-1976
रोध	-1977
▁भे	-1978
▁प्रमाण	-1979
▁खेल्	-1980
हुँ	-1981
▁ग्रह	-1982
▁यद्यपि	-1983
▁विद्यार्थी	-1984
ष्णु	-1985
▁प्रतिनिधि	-1986
▁सुविधा	-1987
वासी	-1988
एकी	-1989
ियत	-1990
▁त्यसै	-1991
▁रेडियो	-1992
▁अनुसन्ध	-1993
द्युत	-1994
बार	-1995
पे	-1996
▁जस्तो	-1997
▁यसरी	-1998
▁कवि	-1999
▁हाम	-2000
ालो	-2001
▁हिन्दी	-2002
▁सुरक्षा	-2003
▁स्ना	-2004
▁आउने	-2005
▁झा	-2006
▁नियु	-2007
▁युवा	-2008
▁क्षेत्रहरूको	-2009
▁कम्युनि	-2010
नेक	-2011
▁पाण्ड	-2012
▁गरेपछि	-2013
▁जानकारी	-2014
▁गरिएका	-2015
दको	-2016
▁आफ्नै	-2017
▁माइ	-2018
▁बनाउन	-2019
▁बनाइएको	-2020
स्पति	-2021
▁निर	-2022
▁बजारमा	-2023
▁उद्देश्य	-2024
▁बज	-2025
▁कायम	-2026
▁च्याम्पियन	-2027
मशेर	-2028
ङ्गी	-2029
▁जिल्लाका	-2030
गरमा	-2031
▁गएको	-2032
▁अधिका	-2033
▁नाटक	-2034
िमी	-2035
▁२००६	-2036
्मी	-2037
▁घाँ	-2038
▁इन्टर	-2039
▁आठ	-2040
िमाञ्चल	-2041
न्च	-2042
▁भन	-2043
▁स्वी	-2044
▁नामले	-2045
▁फर्क	-2046
▁अवार्ड	-2047
▁सम्पन्न	-2048
▁तत्कालीन	-2049
▁टेलिभिजन	-2050
▁पदार्थ	-2051
▁सम्पाद	-2052
जिल	-2053
▁प्राकृतिक	-2054
▁अधिकारी	-2055
▁चलचित्रमा	-2056
▁छोरी	-2057
ानु	-2058
र्ना	-2059
पण	-2060
▁खोज	-2061
▁विसं	-2062
▁१९३	-2063
▁सन्द	-2064
▁बनेका	-2065
यको	-2066
▁साझा	-2067
▁एम	-2068
▁मी	-2069
हरूसँग	-2070
▁यिन	-2071
▁मिल्	-2072
ईको	-2073
र्भ	-2074
ीकरण	-2075
▁बिर	-2076
▁१००	-2077
▁पश्चिममा	-2078
वर्	-2079
कर्ष	-2080
च्चा	-2081
▁पत्रिका	-2082
द्रा	-2083
▁इस्	-2084
▁जाने	-2085
▁फु	-2086
टीको	-2087
खर	-2088
▁कारणले	-2089
कालमा	-2090
▁घटना	-2091
▁सङ्गठन	-2092
▁प्रविधि	-2093
ियाँ	-2094
▁अश्	-2095
▁यू	-2096
▁दिएको	-2097
▁बह	-2098
▁दिइएको	-2099
चान	-2100
▁मार्ग	-2101
▁चला	-2102
▁क्षम	-2103
पटक	-2104
▁फिल्म	-2105
ंगा	-2106
▁अदाल	-2107
▁तयार	-2108
▁बनाउने	-2109
▁आकार	-2110
▁ज्या	-2111
▁स्या	-2112
द्द	-2113
▁लिएर	-2114
▁लिएको	-2115
▁आयोजित	-2116
▁घु	-2117
▁२९	-2118
▁कलाकार	-2119
गी	-2120
▁मिस	-2121
र्द	-2122
लिक	-2123
▁हामी	-2124
▁सिद्धान्त	-2125
लील	-2126
▁सन	-2127
▁पुग्	-2128
शन	-2129
▁कोइ	-2130
▁सक्ने	-2131
▁साम्रा	-2132
▁संस्कृति	-2133
▁तथ	-2134
▁गुण	-2135
▁अनुमान	-2136
▁बाटो	-2137
▁सैनिक	-2138
▁हरि	-2139
▁स्वि	-2140
▁अस्ट्र	-2141
▁अनुसन्धान	-2142
▁मार	-2143
▁पश्चिमी	-2144
▁तो	-2145
न्धु	-2146
▁दूरसञ्चार	-2147
दीय	-2148
▁सड	-2149
▁स्म	-2150
न्धी	-2151
▁भन्	-2152
▁समान	-2153
▁अध्या	-2154
▁भएकाले	-2155
▁खेती	-2156
▁प्रहरी	-2157
▁किरा	-2158
▁अश्लील	-2159
▁बन्न	-2160
▁प्रस्ता	-2161
्मण	-2162
बद्ध	-2163
▁पूरा	-2164
क्रिय	-2165
▁ब्राह	-2166
डब्ल्यु	-2167
▁अभिनेता	-2168
▁मोबा	-2169
▁अधिकांश	-2170
भी	-2171
▁रुपमा	-2172
▁राख्ने	-2173
▁पूर्वमा	-2174
▁साम्राज्य	-2175
▁उपचार	-2176
▁मुख्यतया	-2177
▁अरु	-2178
▁सङ्क	-2179
▁मन्त्रालय	-2180
▁बिक	-2181
▁स्तर	-2182
▁श्रेष्ठ	-2183
सलाई	-2184
▁कार	-2185
▁फूल	-2186
▁.	-2187
▁वैज्ञानिक	-2188
▁वर्णन	-2189
▁प्रस्ताव	-2190
▁जङ्ग	-2191
ल्ट	-2192
▁गर्यो	-2193
▁महारा	-2194
▁योगदान	-2195
▁सामान्यतया	-2196
▁१९१	-2197
▁नीति	-2198
▁गरिरह	-2199
▁त्यही	-2200
नीय	-2201
▁प्रशि	-2202
मार्ग	-2203
ंस	-2204
▁गोर्	-2205
▁हरा	-2206
▁बाहेक	-2207
्रोत	-2208
वलम्ब	-2209
▁सञ्ज	-2210
▁ज्ञान	-2211
▁ठुलो	-2212
▁बस्ने	-2213
▁माग	-2214
▁शास्त्र	-2215
ल्ब	-2216
सिक	-2217
▁यही	-2218
▁सोही	-2219
▁शान्ति	-2220
▁रण	-2221
ल्लो	-2222
▁वेद	-2223
▁आयोग	-2224
▁एक्स	-2225
▁अस्पताल	-2226
ल्य	-2227
▁साना	-2228
टमा	-2229
▁आई	-2230
▁राई	-2231
▁सांस्कृतिक	-2232
यती	-2233
्दै	-2234
▁ढु	-2235
▁सूच	-2236
▁दिल्ली	-2237
▁मुख	-2238
▁पहाड	-2239
ङको	-2240
न्तरण	-2241
▁अर्थात्	-2242
▁बीचमा	-2243
▁व्याव	-2244
िलि	-2245
▁नगरपालिकाको	-2246
खण्ड	-2247
▁बुद्ध	-2248
लीको	-2249
सिया	-2250
▁सिमा	-2251
▁सर्वो	-2252
▁पिता	-2253
▁उदा	-2254
▁सर्वा	-2255
▁भारतका	-2256
▁सरकारको	-2257
तर्फ	-2258
▁चर्च	-2259
चाल	-2260
▁कौ	-2261
▁अवधि	-2262
▁अगस्ट	-2263
टे	-2264
▁थाले	-2265
▁केन्द्रीय	-2266
▁अञ्चल	-2267
▁हुनाले	-2268
टको	-2269
▁प्या	-2270
▁डब्ल्यु	-2271
▁सम्बन्धी	-2272
ताका	-2273
▁उपन्यासकार	-2274
▁गृह	-2275
▁मोड	-2276
खु	-2277
▁रेक	-2278
▁व्यक्त	-2279
बेला	-2280
▁चिनिन्छ	-2281
वंश	-2282
▁उनीहरू	-2283
सल	-2284
▁कमा	-2285
▁विजय	-2286
लग्न	-2287
▁मोबाइल	-2288
▁विष्णु	-2289
▁रेकर्ड	-2290
▁प्रेम	-2291
▁चे	-2292
रिया	-2293
▁जर्मनी	-2294
▁हासिल	-2295
▁मध	-2296
▁पात	-2297
▁सिम	-2298
▁सहभागी	-2299
▁पेश	-2300
▁प्रतियोगितामा	-2301
▁पहाडी	-2302
▁त्यस्तै	-2303
▁प्रत्यक्ष	-2304
ँड	-2305
ंसा	-2306
▁तु	-2307
न्ती	-2308
शील	-2309
▁किसिम	-2310
लाइ	-2311
क्सा	-2312
▁विधि	-2313
▁कहिले	-2314
वृ	-2315
▁उत्पन्न	-2316
▁औँ	-2317
▁माओ	-2318
▁कांग्रे	-2319
▁बरा	-2320
▁जम्मा	-2321
▁डब्ल्युडब्ल्यु	-2322
ंड	-2323
▁उपनि	-2324
▁डिग्री	-2325
▁दृष्टि	-2326
▁४०	-2327
▁लडा	-2328
▁भूमि	-2329
▁ऋषि	-2330
▁भ्रम	-2331
▁प्रकाशन	-2332
क्ल	-2333
क्ने	-2334
▁अमेरिकन	-2335
▁दक्षिणमा	-2336
▁उमेरमा	-2337
▁साक्षर	-2338
▁जग	-2339
▁भै	-2340
▁अनेक	-2341
▁सिक्क	-2342
▁विश्वको	-2343
▁सदरमु	-2344
▁स्वाम	-2345
▁हस्ता	-2346
यल	-2347
▁ताप	-2348
▁अभियान	-2349
▁लगायतका	-2350
फो	-2351
▁निर्मा	-2352
चिव	-2353
ेलु	-2354
▁भाव	-2355
▁याता	-2356
▁लिपि	-2357
▁जान्छ	-2358
▁पुत्र	-2359
▁गर्नका	-2360
▁भन्द	-2361
▁नग	-2362
▁कान	-2363
हरा	-2364
दन	-2365
▁ची	-2366
एपछि	-2367
▁भट्ट	-2368
▁यदि	-2369
▁कर्ण	-2370
इँ	-2371
बाद	-2372
काको	-2373
▁उत्तरा	-2374
▁रानी	-2375
व्यापी	-2376
▁शर्मा	-2377
तिय	-2378
▁३१	-2379
▁आरो	-2380
▁तिन	-2381
▁पाकिस्तानी	-2382
स्वी	-2383
ेसन	-2384
थमिक	-2385
ाउनु	-2386
जो	-2387
संग	-2388
▁प्राथमिक	-2389
ानि	-2390
▁संसदीय	-2391
▁सर्वाधिक	-2392
▁पशु	-2393
▁कालो	-2394
▁च्याम्पियनसि	-2395
▁सुरू	-2396
न्त्रिक	-2397
ेरि	-2398
▁उत्तरमा	-2399
चन	-2400
श्चित	-2401
▁भिडियो	-2402
लित	-2403
▁चै	-2404
ानमा	-2405
▁नाच	-2406
▁यौन	-2407
र्चा	-2408
▁सुन्दर	-2409
स्पर्	-2410
विध	-2411
▁आय	-2412
र्जन	-2413
्ला	-2414
▁१९२	-2415
▁भण्ड	-2416
▁सिक्किम	-2417
जरा	-2418
स्व	-2419
▁सम्झौ	-2420
▁कुस्ती	-2421
▁राजनीतिज्ञ	-2422
▁मैदान	-2423
▁भीम	-2424
▁पुनः	-2425
▁२००४	-2426
▁निर्देशक	-2427
▁प्रक्रिया	-2428
सेन	-2429
▁पठ	-2430
▁पात्र	-2431
गञ्ज	-2432
▁हरेक	-2433
▁प्रतिस्पर्	-2434
▁संलग्न	-2435
▁मगर	-2436
▁लाग्ने	-2437
्यार	-2438
▁अनुवाद	-2439
▁वृद्धि	-2440
▁स्वामित्व	-2441
न्तु	-2442
▁वनस्पति	-2443
क्टर	-2444
▁२००५	-2445
▁२०२०	-2446
▁गरिन्	-2447
▁जाप	-2448
प्ता	-2449
▁प्रयास	-2450
चे	-2451
▁देउ	-2452
गोल	-2453
▁औष	-2454
▁सदरमुकाम	-2455
नेर	-2456
▁युग	-2457
ख्यात	-2458
साई	-2459
त्ती	-2460
▁शरीर	-2461
▁नदीको	-2462
▁साक्षरता	-2463
ैँ	-2464
▁सक्रिय	-2465
▁हट	-2466
▁संगीत	-2467
जले	-2468
▁सूचना	-2469
टै	-2470
नो	-2471
लाका	-2472
ारमा	-2473
▁चाह	-2474
रिका	-2475
ण्डा	-2476
राज्य	-2477
▁नियुक्त	-2478
हरण	-2479
द्दा	-2480
▁कोष	-2481
▁अस्ट्रेल	-2482
▁फे	-2483
▁चलन	-2484
▁व्यावसाय	-2485
खो	-2486
▁हरू	-2487
▁गणतन्त्र	-2488
▁दिव	-2489
▁माघ	-2490
▁थुप्र	-2491
▁प्रतिष्ठ	-2492
▁न्यु	-2493
▁पोखरी	-2494
▁छुट्ट	-2495
▁पहिचान	-2496
▁नियम	-2497
▁अग्र	-2498
▁अलग	-2499
▁२०६८	-2500
दछन्	-2501
▁सतह	-2502
▁खेलकु	-2503
्युट	-2504
▁खोला	-2505
▁विकी	-2506
▁संरचना	-2507
▁इन्	-2508
गि	-2509
▁धान	-2510
▁प्रदेशको	-2511
▁नौ	-2512
कहरू	-2513
ित्त	-2514
▁मेला	-2515
▁लिने	-2516
▁गोत्र	-2517
▁लगानी	-2518
▁थुप्रै	-2519
▁अङ्ग्रेजीमा	-2520
▁शुरू	-2521
▁अत्यन्त	-2522
▁प्रसारण	-2523
▁एन्ड	-2524
▁न्याय	-2525
▁सुद	-2526
नुसार	-2527
▁सामु	-2528
▁बङ्गाली	-2529
▁ध्यान	-2530
चाइ	-2531
▁पत्	-2532
▁प्रकारका	-2533
▁स्वतन्त्रता	-2534
▁चिक	-2535
▁चराको	-2536
▁है	-2537
▁कति	-2538
शाख	-2539
कृष्ण	-2540
▁गोरखा	-2541
▁मान्छ	-2542
▁स्थिति	-2543
देवी	-2544
▁वरि	-2545
▁इन्ज	-2546
चर	-2547
ीक	-2548
▁उनीहरूले	-2549
▁फैलिएको	-2550
छिन्	-2551
▁आचार्य	-2552
▁जसमध्ये	-2553
बाल	-2554
▁साँ	-2555
▁मिश्र	-2556
▁एकल	-2557
दिन	-2558
▁मिलेर	-2559
▁पश्चात्	-2560
▁शाही	-2561
▁सालको	-2562
▁उपजिल्लाले	-2563
टु	-2564
▁भुट	-2565
लङ्	-2566
▁भनी	-2567
▁ल्याएको	-2568
लेट	-2569
▁बच्चा	-2570
▁शुरु	-2571
▁मध्येको	-2572
▁उड	-2573
▁बर	-2574
▁रातो	-2575
▁सन्तान	-2576
▁यहाँको	-2577
▁बङ्गाल	-2578
जाब	-2579
▁इन	-2580
नाम	-2581
भाषा	-2582
▁खाने	-2583
▁परिचित	-2584
▁शाखा	-2585
▁मूल्य	-2586
▁गौतम	-2587
▁खेल्ने	-2588
ँडा	-2589
लका	-2590
▁सैन्य	-2591
▁बनाएको	-2592
नेस्को	-2593
▁भएकोले	-2594
▁भवन	-2595
लोचना	-2596
▁हुँदैन	-2597
ँदै	-2598
इने	-2599
क्षी	-2600
▁रुप	-2601
▁माओवादी	-2602
जग	-2603
▁थर	-2604
▁सिन्धु	-2605
▁परा	-2606
▁चुनाव	-2607
▁जम	-2608
▁धु	-2609
▁घरमा	-2610
▁लागेको	-2611
▁मनो	-2612
▁गर्द	-2613
लिम	-2614
म्बु	-2615
▁अन्न	-2616
▁पृष्ठ	-2617
त्मा	-2618
▁ठूला	-2619
▁लागू	-2620
ल्क	-2621
सकेको	-2622
▁आँखा	-2623
▁ललित	-2624
▁निकाय	-2625
▁मिनेट	-2626
▁सहायक	-2627
काव्य	-2628
▁मुलुक	-2629
▁खास	-2630
▁अफ्रिका	-2631
▁माथ	-2632
मती	-2633
ालु	-2634
▁स्त	-2635
िएन	-2636
माथि	-2637
▁मस्	-2638
▁आस	-2639
▁विप	-2640
▁युनेस्को	-2641
म्स	-2642
भे	-2643
गट	-2644
शाली	-2645
▁साझ	-2646
▁चर्चित	-2647
▁महेन्द्र	-2648
▁क्षेत्रका	-2649
▁खाना	-2650
▁विवरण	-2651
▁शब्दको	-2652
▁गैर	-2653
▁घण्ट	-2654
▁दुबै	-2655
▁आन्दोलन	-2656
▁जंग	-2657
▁रंग	-2658
▁ग्रा	-2659
▁यस्ता	-2660
▁विविध	-2661
▁निबन्ध	-2662
▁महाभार	-2663
ब्ल्यू	-2664
▁नारायण	-2665
▁स्वरूप	-2666
नै	-2667
▁नैं	-2668
▁शृङ्खला	-2669
पाई	-2670
उँछन्	-2671
ल्लाह	-2672
▁आत्म	-2673
▁क्षमता	-2674
▁सब	-2675
▁खेलकुद	-2676
▁सञ्जाल	-2677
फी	-2678
▁पुराण	-2679
▁विश्वकप	-2680
▁त्यति	-2681
▁एल्ब	-2682
▁प्रायः	-2683
वत	-2684
▁आग	-2685
▁चित	-2686
▁तार	-2687
▁परम्परागत	-2688
▁गाउँपालिकाको	-2689
▁पं	-2690
श्वर	-2691
▁नाग	-2692
साथ	-2693
▁जित्न	-2694
▁प्रारम्भिक	-2695
▁व्यावसायिक	-2696
कलन	-2697
्याग	-2698
▁अझै	-2699
ल्याण्ड	-2700
▁ब्राह्मण	-2701
एल	-2702
ईमा	-2703
▁बिल	-2704
▁पत्रकार	-2705
▁बेलायती	-2706
▁कम्पनीको	-2707
ुरो	-2708
जिम	-2709
लाल	-2710
▁सृ	-2711
त्तर	-2712
▁डाँ	-2713
▁सडक	-2714
▁१९०	-2715
▁इन्द्र	-2716
शो	-2717
▁हावा	-2718
▁उठ	-2719
▁छे	-2720
▁अनुमति	-2721
▁माध्यमिक	-2722
▁गए	-2723
▁काव्य	-2724
गरमाथा	-2725
▁भनिएको	-2726
▁मार्	-2727
कुल	-2728
▁इट	-2729
▁ढाका	-2730
▁तत्काल	-2731
▁महिलाको	-2732
चारी	-2733
▁ट्र	-2734
ण्डकी	-2735
▁म्यान	-2736
उँदै	-2737
तावरण	-2738
▁आकर्ष	-2739
▁साझेद	-2740
▁दर्शन	-2741
▁अर्थशास्त्र	-2742
मत	-2743
त्न	-2744
▁जनक	-2745
▁सेतो	-2746
▁सगरमाथा	-2747
रिक	-2748
कुमार	-2749
रिक्त	-2750
▁विधा	-2751
▁पृथ्वी	-2752
▁हेर्	-2753
▁कोइरा	-2754
▁चन्द	-2755
▁बोलि	-2756
▁क्रिया	-2757
दल	-2758
मण्ड	-2759
▁आवा	-2760
▁२०००	-2761
▁प्रान्त	-2762
▁अतिरिक्त	-2763
गढ	-2764
५०	-2765
▁हाइ	-2766
▁रहने	-2767
▁एसियाली	-2768
▁अस्त	-2769
▁समेट	-2770
ठो	-2771
▁दै	-2772
▁समर्थन	-2773
▁डु	-2774
▁बच	-2775
▁फाइन	-2776
▁मानिसहरूको	-2777
▁चर	-2778
▁रक्षा	-2779
▁प्रख्यात	-2780
ीप	-2781
लिङ	-2782
▁रहे	-2783
▁पेट	-2784
▁मूर्ति	-2785
▁लघ	-2786
▁केवल	-2787
▁वर्षा	-2788
▁जोडिएको	-2789
लीमा	-2790
▁गाय	-2791
युद्ध	-2792
▁बहादुर	-2793
▁वातावरण	-2794
▁एच	-2795
्दा	-2796
तिमा	-2797
▁काग	-2798
कुर	-2799
▁अंग	-2800
▁टाइ	-2801
▁रेल	-2802
▁पूर्वा	-2803
▁निर्माता	-2804
▁केहि	-2805
▁भिन्न	-2806
▁सर्वोच्च	-2807
▁क्षेत्रलाई	-2808
▁मुस्	-2809
▁च्याम्पियनसिप	-2810
पछ	-2811
हुन्छ	-2812
▁तामा	-2813
▁मुक्ति	-2814
▁विकसित	-2815
गुन	-2816
तका	-2817
वाल	-2818
▁घा	-2819
▁६०	-2820
▁ग्या	-2821
फे	-2822
▁चौथो	-2823
▁कानुन	-2824
▁२००१को	-2825
▁आम	-2826
▁गायक	-2827
▁सत्य	-2828
▁पाकिस्तानको	-2829
▁स्वय	-2830
▁लिम	-2831
▁इन्जिन	-2832
▁घोषित	-2833
▁एड	-2834
▁कब्	-2835
▁युद्धमा	-2836
▁निकु	-2837
▁माछा	-2838
▁खेलको	-2839
▁व्यापक	-2840
▁साधारण	-2841
▁चाल	-2842
▁पञ्चा	-2843
बीच	-2844
मिल	-2845
▁पहिला	-2846
▁भ्रमण	-2847
लिस	-2848
▁नृ	-2849
▁सार	-2850
ियामा	-2851
▁निर्वाचनमा	-2852
दिक	-2853
म्मे	-2854
▁बुबा	-2855
▁मिला	-2856
▁हेर	-2857
▁हाम्रो	-2858
एन	-2859
सङ्ग	-2860
▁विद्व	-2861
▁स्रोत	-2862
▁दक्षिणी	-2863
ख्	-2864
▁युरोपेली	-2865
▁विश्वव्यापी	-2866
पल	-2867
रान	-2868
▁ठा	-2869
▁शो	-2870
ारको	-2871
क्षिक	-2872
▁सङ्घीय	-2873
▁व्यवस्थापन	-2874
▁लै	-2875
▁देशमा	-2876
▁अमेरिकाको	-2877
▁मात्रामा	-2878
नाइ	-2879
▁विक्रम	-2880
क्षेत्र	-2881
स्टर	-2882
▁लिए	-2883
▁पानीको	-2884
स्तान	-2885
्याङ्क	-2886
यमा	-2887
▁श्रा	-2888
▁शमशेर	-2889
ेशन	-2890
अनुसार	-2891
▁तरिका	-2892
▁उपजिल्लाको	-2893
जुन	-2894
रीको	-2895
िटेड	-2896
▁तर्फबाट	-2897
▁चो	-2898
▁निजी	-2899
▁चिनियाँ	-2900
ष्टा	-2901
▁समाचार	-2902
▁मज	-2903
▁विषयमा	-2904
▁बिच	-2905
▁पर्वत	-2906
साब	-2907
णिज्य	-2908
▁गे	-2909
▁दिन्छ	-2910
मल	-2911
▁नामा	-2912
▁तिब्बती	-2913
▁लिमिटेड	-2914
नगर	-2915
टकीय	-2916
▁प्रती	-2917
▁आवश्यकता	-2918
राको	-2919
▁तारा	-2920
एम	-2921
कले	-2922
▁एफ	-2923
▁स्पष्ट	-2924
▁उपस्थिति	-2925
न्डर	-2926
रीमा	-2927
श्रे	-2928
▁तल	-2929
▁निस्क	-2930
▁भूभाग	-2931
▁हुनेछ	-2932
▁प्रतिस्पर्धा	-2933
▁सामेल	-2934
भने	-2935
भाष	-2936
▁घो	-2937
▁मध्यमा	-2938
▁गाविसमा	-2939
▁बन	-2940
▁चिनि	-2941
▁निकुञ्ज	-2942
▁नेट	-2943
भयो	-2944
हरुको	-2945
▁उदाहरण	-2946
▁हस्ताक्षर	-2947
कला	-2948
ियल	-2949
▁होइन	-2950
▁२००३	-2951
डीको	-2952
स्टा	-2953
▁सुदूर	-2954
▁बलि	-2955
▁वार्ष	-2956
▁कम्पनीले	-2957
▁वास्तविक	-2958
▁माध्यमबाट	-2959
क्का	-2960
धारा	-2961
शाला	-2962
▁डलर	-2963
▁गाविसको	-2964
▁वाणिज्य	-2965
▁काठमाडौं	-2966
▁पश्चिमाञ्चल	-2967
▁ओगट	-2968
पुरमा	-2969
▁उचाइ	-2970
▁थाहा	-2971
▁२०७४	-2972
▁उपजिल्लाका	-2973
्मा	-2974
क्ता	-2975
▁अस्तित्व	-2976
▁प्रतियोगिताको	-2977
पित	-2978
योजन	-2979
▁गएर	-2980
ग्राम	-2981
▁गरिस	-2982
▁प्ले	-2983
▁मण्ड	-2984
▁एकै	-2985
▁मोह	-2986
▁मुद्दा	-2987
रले	-2988
तीको	-2989
▁वित	-2990
▁कठ	-2991
प्रति	-2992
वित्र	-2993
पिडिया	-2994
▁अधिराज्य	-2995
▁तब	-2996
▁१९९०	-2997
▁धर्मका	-2998
▁श्रव्य	-2999
▁३६	-3000
रल	-3001
िश	-3002
▁आयु	-3003
▁ब्य	-3004
▁साउ	-3005
▁आदेश	-3006
▁नदि	-3007
▁निरन्तर	-3008
▁समितिको	-3009
श्रेष्ठ	-3010
▁मन्दिरको	-3011
▁नेतृत्वमा	-3012
▁बग	-3013
खाना	-3014
ेपछि	-3015
▁बन्	-3016
▁अल्	-3017
▁साइ	-3018
हल	-3019
▁मिलियन	-3020
▁श्रीलङ्	-3021
गमती	-3022
पुरको	-3023
▁नम्बर	-3024
▁सङ्कलन	-3025
▁लक्ष्मी	-3026
।।	-3027
▁दौ	-3028
ाउँछ	-3029
▁शासक	-3030
▁तल्लो	-3031
▁हनु	-3032
सत	-3033
फाइ	-3034
▁अर्थात	-3035
▁सम्भाव	-3036
▁प्रतिवेद	-3037
▁स्पे	-3038
▁विशाल	-3039
▁उपकरण	-3040
▁रूपले	-3041
▁ब्रह्म	-3042
▁आप	-3043
▁बद	-3044
▁३२	-3045
▁तराई	-3046
▁मेरो	-3047
ीका	-3048
▁नस	-3049
▁लोप	-3050
▁अग्लो	-3051
▁सन्धि	-3052
▁भौतिक	-3053
चारिक	-3054
▁साधन	-3055
▁दैनिक	-3056
▁नामबाट	-3057
भएको	-3058
▁मुस्लिम	-3059
▁काट	-3060
▁पाउ	-3061
▁१९७१	-3062
▁विदेशी	-3063
वलम्बीको	-3064
▁रस	-3065
▁उदय	-3066
▁व्र	-3067
▁सभ	-3068
▁टाढा	-3069
▁थियोे	-3070
▁सफलता	-3071
▁मान्छे	-3072
▁विद्युत	-3073
▁शैक्षिक	-3074
लाइन	-3075
सँगको	-3076
▁लुम्ब	-3077
▁महिनामा	-3078
▁ह्या	-3079
तै	-3080
▁ध्व	-3081
▁पदक	-3082
▁परेका	-3083
▁बागमती	-3084
थर	-3085
▁जै	-3086
न्थे	-3087
▁उपनिष	-3088
▁तीर्थ	-3089
▁विरोध	-3090
तान्त्रिक	-3091
हरुका	-3092
▁स्वर	-3093
▁कब्जा	-3094
▁सेन्ट	-3095
लम	-3096
▁फिट	-3097
▁वायु	-3098
▁धार	-3099
बालिका	-3100
▁लगाउने	-3101
▁संस्थापक	-3102
सव	-3103
िने	-3104
▁जति	-3105
टल	-3106
बे	-3107
▁निश्चित	-3108
▁कम्युनिष्ट	-3109
स्वर	-3110
चक	-3111
▁पाई	-3112
▁निर्देशन	-3113
▁लड	-3114
ेन्ट	-3115
▁सप्त	-3116
▁सर्वश्रेष्ठ	-3117
खी	-3118
▁क्रि	-3119
▁फेरि	-3120
▁एडि	-3121
▁छोड	-3122
्योति	-3123
▁दिनु	-3124
▁संसद	-3125
▁बालबालिका	-3126
▁छनोट	-3127
▁तमिल	-3128
▁सम्झौता	-3129
▁धर्मवलम्बीको	-3130
▁बोक	-3131
दू	-3132
म्मेद	-3133
▁पत्नी	-3134
▁उपम	-3135
▁खुला	-3136
▁छोटो	-3137
▁माटो	-3138
▁पाउने	-3139
▁बनाएका	-3140
▁सेनाले	-3141
▁साथी	-3142
▁२००२	-3143
▁बिक्री	-3144
▁विमानस्थल	-3145
▁झु	-3146
▁पछा	-3147
▁सक्छन्	-3148
▁सेनाको	-3149
▁संस्थान	-3150
्लो	-3151
▁गाई	-3152
▁तपाई	-3153
▁गीतको	-3154
▁साविक	-3155
▁राख्न	-3156
▁आर्य	-3157
▁पार्टीको	-3158
▁पञ्	-3159
▁बार	-3160
▁रहन	-3161
▁गर्नको	-3162
हाल	-3163
▁जनावर	-3164
▁त्यसलाई	-3165
ोको	-3166
▁बाँकी	-3167
▁बीचको	-3168
जक	-3169
▁जिम्मे	-3170
▁मन्दिरमा	-3171
▁वर	-3172
▁हिम	-3173
▁पाल्	-3174
▁सिर्	-3175
▁लिएका	-3176
▁युद्धको	-3177
न्दु	-3178
▁चलचित्रको	-3179
▁निर्धारण	-3180
कपा	-3181
तले	-3182
▁रामा	-3183
▁नभएको	-3184
▁परिणाम	-3185
केको	-3186
▁मनु	-3187
▁कुमार	-3188
ह्र	-3189
▁ली	-3190
▁पवित्र	-3191
र्मी	-3192
्याक	-3193
▁उसको	-3194
▁चौध	-3195
▁गण्डकी	-3196
ोका	-3197
▁ऐन	-3198
▁पर्या	-3199
▁शिक्षण	-3200
▁सम्मेल	-3201
जुङ	-3202
होस्	-3203
▁नहु	-3204
▁गणेश	-3205
▁तत्व	-3206
▁महाकाव्य	-3207
▁पर्यटक	-3208
गरपालिका	-3209
▁कार्यक्रममा	-3210
तियार	-3211
▁नाममा	-3212
▁दिनमा	-3213
▁इन्टरनेट	-3214
▁प्रशासनिक	-3215
लीय	-3216
▁४५	-3217
▁क्रमश	-3218
▁ग्राम	-3219
िटी	-3220
▁नेकपा	-3221
▁वार्षिक	-3222
रत	-3223
वण	-3224
क्य	-3225
थान	-3226
क्षे	-3227
▁दुइ	-3228
▁प्रकृति	-3229
▁पद्	-3230
▁बनाएर	-3231
▁अर्जुन	-3232
▁पर्दछन्	-3233
▁लुम्बिनी	-3234
▁योग्य	-3235
आर	-3236
जाति	-3237
डामा	-3238
▁मात्रै	-3239
▁प्रचलित	-3240
यान	-3241
▁आए	-3242
▁पर्यटकीय	-3243
▁विकिपिडिया	-3244
ग्ने	-3245
स्वरूप	-3246
▁प्रिम	-3247
▁कर्मचारी	-3248
िकल	-3249
▁भाष	-3250
▁एउटै	-3251
▁निष्	-3252
▁विद्रो	-3253
▁हनुमान	-3254
▁राजमार्ग	-3255
फ्	-3256
▁३५	-3257
त्रु	-3258
▁टाउ	-3259
▁भोज	-3260
▁सम्ब	-3261
डाको	-3262
▁मोर	-3263
▁झापा	-3264
▁फिलि	-3265
▁सन्दर्भ	-3266
ाइएको	-3267
▁स्नातक	-3268
▁व्यक्तिगत	-3269
णु	-3270
▁एल	-3271
▁खै	-3272
ीकृत	-3273
▁न्यू	-3274
▁पुरुषको	-3275
▁शताब्दीमा	-3276
▁औं	-3277
▁अरू	-3278
▁विमिन	-3279
▁डब्ल्युडब्ल्युई	-3280
▁वैदिक	-3281
माले	-3282
▁ग्रे	-3283
▁बिहार	-3284
बाह	-3285
मेन्ट	-3286
▁माता	-3287
▁विशेषता	-3288
▁धर्मको	-3289
▁प्रभावित	-3290
▁प्रकाशनले	-3291
डु	-3292
घाट	-3293
मोजिम	-3294
▁रहन्छ	-3295
▁संवत्	-3296
पछी	-3297
▁पदमा	-3298
▁राज्यमा	-3299
पद	-3300
▁गठ	-3301
▁समाप्त	-3302
▁कम्प्युट	-3303
ग्व	-3304
यता	-3305
▁कोइराला	-3306
▁सिर्जना	-3307
सू	-3308
चन्द्र	-3309
▁हालसम्म	-3310
▁।।	-3311
▁गोल्ड	-3312
▁सूचीमा	-3313
ेज	-3314
▁एडिटा	-3315
कट	-3316
▁चक्र	-3317
▁एडिटाथन	-3318
▁उत्पत्ति	-3319
▁साझेदारी	-3320
▁घेर	-3321
▁धनु	-3322
▁ओगटेको	-3323
▁यातायात	-3324
वस्था	-3325
▁कालमा	-3326
▁मुक्त	-3327
▁सम्ममा	-3328
ङमा	-3329
च्छा	-3330
भूमि	-3331
▁समुद्र	-3332
▁ब्रह्मा	-3333
▁दुख	-3334
▁बनाई	-3335
पचारिक	-3336
▁जसका	-3337
▁गाउँमा	-3338
▁सङ्घको	-3339
▁मातृ	-3340
▁पुनर्	-3341
▁लेखेका	-3342
▁दस	-3343
▁चीनको	-3344
▁पर्दा	-3345
▁खस	-3346
▁दलको	-3347
▁क्यान	-3348
▁साङ्गी	-3349
नाल	-3350
एक्स	-3351
न्मुख	-3352
▁थिएँ	-3353
▁भाषाहरू	-3354
जिद	-3355
▁चढ	-3356
▁सोभ	-3357
▁जबकि	-3358
▁रक्त	-3359
▁दर्ता	-3360
▁अङ्क	-3361
▁साङ्गीतिक	-3362
सहित	-3363
ितीय	-3364
▁छुट	-3365
न्द्व	-3366
▁चिन्	-3367
माल	-3368
▁उनकी	-3369
चो	-3370
वली	-3371
▁जात्रा	-3372
▁प्रसाद	-3373
उट	-3374
लै	-3375
प्प	-3376
▁सिं	-3377
▁ग्री	-3378
▁मनोन	-3379
▁उम्मेद	-3380
निको	-3381
▁डटक	-3382
▁विरा	-3383
▁वर्षमा	-3384
धीश	-3385
▁साथमा	-3386
गाउँ	-3387
पश्चिम	-3388
प्रयोग	-3389
हको	-3390
▁इतिहासमा	-3391
▁कार्यकारी	-3392
▁रन	-3393
▁अमेरिकामा	-3394
▁प्रजातिको	-3395
▁चाड	-3396
▁सेन	-3397
▁किसान	-3398
▁जर्मन	-3399
▁फिर्ता	-3400
▁बेलायत	-3401
जुर	-3402
▁इङ्	-3403
▁रुख	-3404
दायिक	-3405
▁विवाद	-3406
▁कर्णाली	-3407
▁नृत्य	-3408
िसी	-3409
▁भव	-3410
▁श्रम	-3411
▁जातिको	-3412
▁सम्बन्धमा	-3413
कारण	-3414
ञ्जन	-3415
▁परिवारमा	-3416
ल्न	-3417
▁मनोर	-3418
▁एल्बम	-3419
▁क्षति	-3420
▁जीवनको	-3421
राध	-3422
▁४८	-3423
स्की	-3424
▁टोलीको	-3425
▁क्रम	-3426
पूर्वक	-3427
▁घण्टा	-3428
▁मेल	-3429
▁बाली	-3430
▁नियमित	-3431
▁देशहरूमा	-3432
▁डी	-3433
▁द्र	-3434
वस्तु	-3435
ालीको	-3436
▁टापु	-3437
▁वित्	-3438
▁गङ्गा	-3439
▁क्षेत्रीय	-3440
भो	-3441
१९	-3442
▁कुट	-3443
▁नारा	-3444
▁सङ्केत	-3445
▁प्रिमियर	-3446
▁आकाश	-3447
▁काली	-3448
▁वैशाख	-3449
▁जितेको	-3450
▁सल्लाह	-3451
न्टि	-3452
हारी	-3453
अघि	-3454
▁बसा	-3455
▁२०७३	-3456
▁गराउने	-3457
▁ज्योति	-3458
▁शताब्दीको	-3459
खे	-3460
▁निर्मित	-3461
▁साहित्यिक	-3462
उड	-3463
र्का	-3464
श्वास	-3465
▁जनसं	-3466
▁सम्बन्धन	-3467
ैको	-3468
▁खड्	-3469
▁पोखरा	-3470
▁शुद्ध	-3471
▁विश्ले	-3472
▁शिला	-3473
▁नामको	-3474
▁सोभियत	-3475
▁मध्यमाञ्चल	-3476
▁३३	-3477
्राम	-3478
▁विशि	-3479
जसो	-3480
मन्त्र	-3481
▁यिनको	-3482
▁सिद्ध	-3483
▁फ्रान्सेली	-3484
गोलिक	-3485
ङ्गिक	-3486
▁लम्बा	-3487
▁लामा	-3488
▁जनसङ्ख्याको	-3489
िती	-3490
िकरण	-3491
▁जहा	-3492
▁विल	-3493
४४	-3494
▁गोर्खा	-3495
▁मुद्रा	-3496
आई	-3497
▁५१	-3498
▁छेउ	-3499
▁सहरमा	-3500
▁सिमाना	-3501
▁आद	-3502
▁कान्छ	-3503
▁चलचित्रहरू	-3504
लले	-3505
▁दान	-3506
▁अनुप्रयोग	-3507
▁जिल्लाहरू	-3508
▁सश	-3509
सम्प	-3510
सायन	-3511
▁कप्त	-3512
▁दिशा	-3513
▁इन्डो	-3514
▁इस्लाम	-3515
▁प्रावि	-3516
▁महादेव	-3517
▁भौगोलिक	-3518
▁गहुँ	-3519
▁भन्दै	-3520
▁चट्ट	-3521
▁स्कूल	-3522
णिक	-3523
फोन	-3524
▁एभ	-3525
िको	-3526
र्वेद	-3527
▁गुरुङ	-3528
▁चाँ	-3529
▁माथिल्लो	-3530
क्सी	-3531
इस	-3532
ौल	-3533
पना	-3534
▁अनुभव	-3535
▁बेलामा	-3536
▁विभाजित	-3537
जमा	-3538
▁५२	-3539
▁मक	-3540
▁दूध	-3541
▁सभ्य	-3542
▁साहित्यकार	-3543
न्वय	-3544
▁ग्राह	-3545
▁परिणत	-3546
▁आफूलाई	-3547
▁रथ	-3548
▁सचिव	-3549
▁नक्सा	-3550
▁स्वामित्वमा	-3551
नाई	-3552
▁खि	-3553
▁चुन	-3554
▁खर्च	-3555
▁वितरण	-3556
▁मस्जिद	-3557
▁संस्कार	-3558
जल	-3559
श्रम	-3560
▁बेल	-3561
▁ग्रहण	-3562
मय	-3563
लोकन	-3564
▁जेठ	-3565
याधीश	-3566
▁मद्द	-3567
दौ	-3568
्यान्ड	-3569
▁मात्रा	-3570
▁व्यवहार	-3571
▁आएर	-3572
▁गरिन	-3573
▁१९९९	-3574
दिए	-3575
ग्गा	-3576
समेत	-3577
▁साध	-3578
▁अवसर	-3579
कुमारी	-3580
▁समयको	-3581
▁हिसाब	-3582
▁अनलाइन	-3583
▁क्याम्पसहरू	-3584
लक	-3585
▁आह	-3586
▁निम्ति	-3587
▁स्वीकार	-3588
▁प्राविधिक	-3589
घर	-3590
वाट	-3591
▁फागुन	-3592
▁तिब्बत	-3593
ँस	-3594
तालाई	-3595
▁जमिन	-3596
▁मञ्च	-3597
ीनारायण	-3598
▁यहाँका	-3599
▁विद्वान	-3600
▁भूमिकामा	-3601
▁क्षेत्रहरूमा	-3602
▁र्	-3603
ियाका	-3604
▁२०२१	-3605
राष्ट्र	-3606
▁मानिएको	-3607
ौली	-3608
▁चर्चा	-3609
▁बिहान	-3610
▁सम्पत्ति	-3611
▁जोन	-3612
▁मदन	-3613
▁कालि	-3614
▁राखेको	-3615
▁तापक्रम	-3616
ेमा	-3617
्दछ	-3618
म्मद	-3619
▁परीक्षण	-3620
▁इम	-3621
▁रम	-3622
▁क्व	-3623
मात्र	-3624
▁निको	-3625
▁सहरको	-3626
▁परीक्षा	-3627
▁सम्पादन	-3628
▁सञ्चालनमा	-3629
▁८०	-3630
नन्द	-3631
▁आधा	-3632
▁भन्न	-3633
▁मित्र	-3634
▁शुक्ल	-3635
▁गी	-3636
▁लाइ	-3637
▁अक्षर	-3638
लम्ब	-3639
स्त्री	-3640
▁दिनको	-3641
▁लिच्छ	-3642
▁कीर्ति	-3643
▁उपयुक्त	-3644
कोण	-3645
▁मल	-3646
िरहेको	-3647
▁देख्न	-3648
▁लक्षण	-3649
▁भन्नाले	-3650
▁व्याख्या	-3651
क्रो	-3652
▁रोजग	-3653
▁हालको	-3654
हमा	-3655
▁नम	-3656
▁१८९	-3657
▁सम्मानित	-3658
ौर	-3659
उँदा	-3660
कारा	-3661
लेक्ट	-3662
▁कसरी	-3663
▁तिमी	-3664
▁जनसंख्या	-3665
द्दी	-3666
▁माल	-3667
▁रात	-3668
न्सको	-3669
▁आवाज	-3670
▁किनभने	-3671
बेल	-3672
▁माया	-3673
▁गीतहरू	-3674
▁समाजमा	-3675
ेय	-3676
मुखी	-3677
▁औसत	-3678
▁कैला	-3679
▁पाएका	-3680
▁विशिष्ट	-3681
▁प्रदेशमा	-3682
मले	-3683
▁फर	-3684
▁भवि	-3685
इयो	-3686
▁४९	-3687
ुरीमा	-3688
▁बनाए	-3689
▁जनकपुर	-3690
खिम	-3691
▁३७	-3692
कार्य	-3693
▁निधन	-3694
▁घरेलु	-3695
▁धर्मा	-3696
▁अन्तरि	-3697
सम्ब	-3698
▁बाबु	-3699
▁गयो	-3700
▁थार	-3701
▁बर्	-3702
▁गर्थे	-3703
▁जापान	-3704
▁पाल्पा	-3705
▁महिनाको	-3706
डको	-3707
▁रज	-3708
ट्टा	-3709
▁पर्न	-3710
▁पत्ता	-3711
▁सामान	-3712
▁तत्कालिन	-3713
▁चम्	-3714
▁जेल	-3715
▁अर्ब	-3716
▁चाहि	-3717
▁स्टार	-3718
▁प्रबन्ध	-3719
घट	-3720
कम्प	-3721
लागि	-3722
▁मेड	-3723
सकेका	-3724
▁गोली	-3725
▁जग्गा	-3726
▁ब्राजिल	-3727
▁ब्रिटिस	-3728
क्न	-3729
परा	-3730
▁राजाको	-3731
▁गर्भ	-3732
▁१९९८	-3733
▁स्वर्ग	-3734
▁गहि	-3735
▁जलवि	-3736
▁खेलेका	-3737
▁सम्पर्क	-3738
▁प्रतिबन्ध	-3739
गमा	-3740
▁पेर	-3741
▁सान	-3742
▁ट्रा	-3743
▁टाउको	-3744
▁स्वयं	-3745
▁हेर्न	-3746
▁टोलीले	-3747
▁अंश	-3748
रहेका	-3749
न्तरिक	-3750
▁पुस्ता	-3751
रव	-3752
प्ति	-3753
्छन्	-3754
▁रेखा	-3755
▁गायिका	-3756
▁खेलाडीहरू	-3757
ित्य	-3758
▁जून	-3759
▁बमोजिम	-3760
▁आन्तरिक	-3761
राइ	-3762
▁कोर	-3763
▁जाग	-3764
▁त्र	-3765
▁वाल	-3766
▁पश्चात	-3767
▁विश्वका	-3768
▁पट	-3769
प्ले	-3770
▁कोशी	-3771
▁दाजु	-3772
▁चरणमा	-3773
▁जापानी	-3774
▁नेपालले	-3775
▁वित्तीय	-3776
ङ्स	-3777
वमा	-3778
▁काभ	-3779
लिखित	-3780
▁पहिलोपटक	-3781
▁सदस्यहरू	-3782
▁इङ्ल्यान्ड	-3783
८०	-3784
▁ओल	-3785
किलो	-3786
क्षम	-3787
▁रगत	-3788
▁प्रचार	-3789
चु	-3790
टिन	-3791
िरो	-3792
▁सत्ता	-3793
▁श्रीलङ्का	-3794
▁सामुदायिक	-3795
नलाई	-3796
सरमा	-3797
▁पारि	-3798
धिकारी	-3799
▁औपचारिक	-3800
खुरा	-3801
▁खेल्न	-3802
▁प्रेर	-3803
▁समाजवादी	-3804
▁उम्मेदवार	-3805
पत	-3806
प्रा	-3807
र्की	-3808
▁रकम	-3809
म्यान	-3810
▁असार	-3811
▁बिना	-3812
▁पुग्न	-3813
खन	-3814
थु	-3815
सीको	-3816
▁मङ्ग	-3817
सम्मको	-3818
इएफ	-3819
▁कृष	-3820
▁रहि	-3821
▁काजी	-3822
▁२०२२	-3823
सिन्दा	-3824
▁एकाद	-3825
▁रत्न	-3826
▁प्रजातन्त्र	-3827
▁अभिनेत्रीहरू	-3828
दम	-3829
ग्रा	-3830
बारे	-3831
र्चु	-3832
▁चार्ट	-3833
▁पुर्व	-3834
▁ललितपुर	-3835
▁प्रशिक्षण	-3836
▁प्रतिक्रिया	-3837
▁कट	-3838
▁बेच	-3839
▁माझ	-3840
▁यस्तै	-3841
▁मानिसको	-3842
ण्	-3843
घार	-3844
ेले	-3845
पुरा	-3846
▁बैठ	-3847
▁छिट	-3848
▁पहे	-3849
केपछि	-3850
▁तथ्याङ्क	-3851
भरि	-3852
ैरव	-3853
▁वय	-3854
▁७०	-3855
▁उचा	-3856
▁कूल	-3857
▁पहु	-3858
▁लाल	-3859
धानिक	-3860
ित्सा	-3861
▁मामि	-3862
▁कहिलेका	-3863
पात	-3864
रेल	-3865
▁दास	-3866
▁लिगको	-3867
▁निर्वाह	-3868
परिष	-3869
र्ती	-3870
▁दाय	-3871
▁केन्द्रित	-3872
जोर	-3873
वाई	-3874
ङ्गो	-3875
तिकै	-3876
▁अमर	-3877
▁लाभ	-3878
ुट्टा	-3879
▁गर्दथे	-3880
ताले	-3881
श्मी	-3882
▁खोजी	-3883
▁गुमा	-3884
▁दिवस	-3885
▁सकेन	-3886
▁हप्ता	-3887
बलको	-3888
▁थोर	-3889
▁सुपर	-3890
▁हिमाली	-3891
▁पार्टीका	-3892
▁परियोजनामा	-3893
▁१९९७	-3894
ोन्मुख	-3895
▁मजदुर	-3896
▁प्रदेशका	-3897
भक्त	-3898
▁श्रेणी	-3899
हरूद्वारा	-3900
▁अर्थतन्त्र	-3901
▁नियन्त्रणमा	-3902
ृति	-3903
र्पण	-3904
▁रमा	-3905
▁आउँछ	-3906
▁शारी	-3907
▁शाहको	-3908
चय	-3909
निर्	-3910
रूपमा	-3911
▁१९८०	-3912
▁सम्भव	-3913
▁समूहको	-3914
▁सम्भावना	-3915
▁अघ	-3916
खोला	-3917
▁किसिमको	-3918
▁निर्देशित	-3919
▁कतिप	-3920
▁सम्मको	-3921
▁भक्तपुर	-3922
ण्डको	-3923
▁२०५८	-3924
▁अर्का	-3925
▁चितवन	-3926
▁प्रजन	-3927
▁इलेक्ट	-3928
▁कम्प्युटर	-3929
▁पृथ्वीनारायण	-3930
औं	-3931
▁मोडल	-3932
▁रह्यो	-3933
▁भविष्य	-3934
िसो	-3935
▁शं	-3936
ँदैन	-3937
▁बृह	-3938
▁याद	-3939
▁बन्यो	-3940
▁९०	-3941
▁पाए	-3942
▁भरत	-3943
▁मेगा	-3944
▁भनेका	-3945
▁म्याच	-3946
व्र	-3947
▁अछ	-3948
▁छि	-3949
▁ज्ञा	-3950
▁शैली	-3951
▁तथापि	-3952
▁कान्ति	-3953
▁लक्ष्य	-3954
▁स्विफ्ट	-3955
ुटी	-3956
▁छु	-3957
न्धि	-3958
▁आफु	-3959
▁बाँध	-3960
▁यज्ञ	-3961
▁स्थायी	-3962
▁व्यक्तित्व	-3963
ढु	-3964
रिद	-3965
▁गुफा	-3966
▁१९९१	-3967
▁देखेर	-3968
▁मद्दत	-3969
▁मौलिक	-3970
डब्ल्यू	-3971
▁गान्धी	-3972
▁जिम्मेवारी	-3973
ंत	-3974
गढी	-3975
डेल	-3976
र्ध	-3977
▁अह	-3978
▁झर	-3979
▁सहि	-3980
▁फ्रे	-3981
▁जोखिम	-3982
्राट	-3983
▁पन्	-3984
▁डोटी	-3985
▁उल्लेखनीय	-3986
▁कम्युनिस्ट	-3987
▁तप	-3988
▁हृ	-3989
र्षि	-3990
▁भदौ	-3991
▁इजरा	-3992
▁हास्य	-3993
▁पाइन्छन्	-3994
▁बङ्गालको	-3995
बन	-3996
▁तन	-3997
स्सा	-3998
▁कम्	-3999
▁सजा	-4000
▁उसले	-4001
▁लेखा	-4002
▁स्याङ्	-4003
▁कार्यरत	-4004
३०	-4005
पालन	-4006
▁परिषद	-4007
▁पुगेका	-4008
▁सहरहरू	-4009
▁जलविद्युत	-4010
ष्म	-4011
जीको	-4012
▁असो	-4013
▁एयर	-4014
▁राखि	-4015
▁१९९६	-4016
▁सुरक्षित	-4017
▁मंग	-4018
▁महो	-4019
▁पछिल्लो	-4020
कोटा	-4021
▁विज्ञा	-4022
▁गतिविधि	-4023
१४	-4024
▁ऋतु	-4025
▁आवद्ध	-4026
▁सामना	-4027
▁काभ्रे	-4028
▁देखिने	-4029
र्या	-4030
▁नेवार	-4031
▁प्रचलन	-4032
▁प्रश्न	-4033
▁विस्तृत	-4034
▁क्षेत्री	-4035
▁एवम्	-4036
▁ओलम्प	-4037
▁भक्ति	-4038
▁शाहले	-4039
▁हेर्दा	-4040
ौती	-4041
▁यति	-4042
▁उपनिषद	-4043
▁क्रमशः	-4044
▁सुरुमा	-4045
र्पा	-4046
▁दशक	-4047
▁एघार	-4048
▁२०७२	-4049
▁सकिने	-4050
▁स्वर्ण	-4051
....	-4052
▁मरा	-4053
▁१८८	-4054
ुवाकोट	-4055
▁पार्न	-4056
टिल	-4057
्रेस	-4058
▁करी	-4059
▁पठा	-4060
स्तार	-4061
▁औषधि	-4062
▁आदिको	-4063
▁कतिपय	-4064
▁पार्क	-4065
▁चिकित्सा	-4066
▁नु	-4067
्वाइ	-4068
▁यथा	-4069
स्वती	-4070
▁तिनको	-4071
▁किल्ला	-4072
▁शारीरिक	-4073
▁७५	-4074
केका	-4075
▁किता	-4076
▁पर्यटन	-4077
गन	-4078
▁ष	-4079
यणी	-4080
▁अश	-4081
नाइट	-4082
▁छन्द	-4083
ँडे	-4084
▁फाल	-4085
▁उद्ध	-4086
▁अवतार	-4087
▁भनिने	-4088
▁तरकारी	-4089
▁विद्यु	-4090
▁पृथ्वीको	-4091
ट्	-4092
पुरी	-4093
▁भएमा	-4094
▁१९९४	-4095
▁महत्व	-4096
▁युइएफ	-4097
▁संघको	-4098
डित	-4099
लुङ	-4100
▁सल	-4101
्यास	-4102
▁एक्	-4103
कारको	-4104
▁महास	-4105
▁क्याल	-4106
▁रामायण	-4107
▁नुवाकोट	-4108
६८	-4109
▁छै	-4110
▁निगम	-4111
साधारण	-4112
१५	-4113
▁६४	-4114
दायक	-4115
▁बाग	-4116
शक्ति	-4117
▁पैसा	-4118
▁तामाङ	-4119
▁ब्रिटिश	-4120
स्म	-4121
म्ला	-4122
र्नु	-4123
▁पौरा	-4124
▁गर्छन	-4125
▁मकवान	-4126
▁शरीरमा	-4127
▁सुरुवा	-4128
पश्चिमाञ्चल	-4129
ौट	-4130
▁अफग	-4131
ान्तरण	-4132
▁लडाकु	-4133
▁सेवाहरू	-4134
▁हुनुहुन्छ	-4135
▁असर	-4136
▁दलित	-4137
▁कक्षा	-4138
ताप	-4139
सला	-4140
▁३४	-4141
▁बाघ	-4142
▁मौस	-4143
▁नामाकरण	-4144
▁संक	-4145
▁असफल	-4146
▁व्रत	-4147
▁सफ्ट	-4148
▁भगवती	-4149
▁उच्चारण	-4150
▁कडा	-4151
▁शेख	-4152
द्वार	-4153
ध्यक्ष	-4154
▁कश्मी	-4155
▁खाद्य	-4156
▁स्मार	-4157
▁हिमालय	-4158
▁रेस	-4159
▁१८७	-4160
▁आरम्भ	-4161
▁ग्रामी	-4162
▁डिभिजन	-4163
▁बोलिने	-4164
▁देखी	-4165
▁माइल	-4166
▁सबभन्दा	-4167
ुनी	-4168
न्डा	-4169
माको	-4170
धारणा	-4171
▁अत्या	-4172
▁दैलेख	-4173
▁बहिनी	-4174
▁समारो	-4175
▁छुट्टै	-4176
▁विश्लेषण	-4177
फर	-4178
ियरि	-4179
▁अक्षा	-4180
▁संस्थाको	-4181
डमा	-4182
▁तै	-4183
▁वी	-4184
▁गएका	-4185
▁भर्ना	-4186
▁एनएक्स	-4187
▁उनीहरूलाई	-4188
▁न्यायाधीश	-4189
ँजी	-4190
खाल	-4191
▁फलफ	-4192
▁बढा	-4193
िएपछि	-4194
▁बारा	-4195
▁लघुक	-4196
▁१९९२	-4197
कृतिको	-4198
▁सहायता	-4199
छन	-4200
▁वस	-4201
▁३८	-4202
▁४७	-4203
हिता	-4204
▁अभाव	-4205
▁बाजा	-4206
▁स्तन	-4207
▁हस्त	-4208
▁अदालत	-4209
▁इच्छा	-4210
▁लगातार	-4211
▁कार्तिक	-4212
▁सरस्वती	-4213
पोख	-4214
फार	-4215
▁३९	-4216
खाली	-4217
▁जात	-4218
▁बिरा	-4219
▁१९९५	-4220
▁२०७०	-4221
▁गुजरा	-4222
▁पहुँच	-4223
▁कप्तान	-4224
▁बम	-4225
न्दे	-4226
ल्का	-4227
न्ध्र	-4228
▁जनरल	-4229
▁सिने	-4230
▁नोबेल	-4231
▁यसबाट	-4232
▁आलोचना	-4233
▁औद्योग	-4234
▁चिनिने	-4235
▁राष्ट्रको	-4236
वट	-4237
▁चाम	-4238
▁चेत	-4239
▁उद्य	-4240
▁कुमा	-4241
▁मिति	-4242
विश्वास	-4243
▁गरिरहेका	-4244
▁स्याङ्जा	-4245
ब्र	-4246
शेष	-4247
िरे	-4248
▁पका	-4249
▁राय	-4250
ग्रहण	-4251
▁आनन्द	-4252
▁च्यान	-4253
▁पाएको	-4254
▁प्रहार	-4255
रीय	-4256
▁हल	-4257
द्री	-4258
▁छिम	-4259
▁शिशु	-4260
सम्पदा	-4261
▁सीमित	-4262
▁देवकोटा	-4263
मस	-4264
▁थो	-4265
▁चिया	-4266
▁सागर	-4267
▁विधान	-4268
▁समन्वय	-4269
▁टी	-4270
▁१९८४	-4271
▁१९८९	-4272
▁२०७१	-4273
▁विश्वविद्यालयको	-4274
ंध	-4275
▁सध	-4276
▁५३	-4277
▁सुख	-4278
िटरको	-4279
▁तथ्य	-4280
▁पुगे	-4281
▁देशका	-4282
▁राखेर	-4283
▁बोल्ने	-4284
ियस	-4285
▁हम	-4286
▁अक्ष	-4287
▁कपडा	-4288
▁१९७०	-4289
▁पछाडि	-4290
▁लघुकथा	-4291
▁वरिपरि	-4292
▁पौराणिक	-4293
▁विभागको	-4294
कथा	-4295
ड्ड	-4296
▁५५	-4297
मुना	-4298
▁ठीक	-4299
▁शेर	-4300
▁तात्	-4301
▁मुम्ब	-4302
सम्बन्धी	-4303
▁विकासको	-4304
▁साहित्यमा	-4305
शास	-4306
ौला	-4307
▁कहि	-4308
▁इलाम	-4309
प्रदाय	-4310
▁प्रवाह	-4311
▁वर्ल्ड	-4312
▁सेवाको	-4313
श्री	-4314
ैयाँ	-4315
▁फार	-4316
▁सेल	-4317
▁अपना	-4318
▁विना	-4319
▁कानून	-4320
▁पक्षमा	-4321
▁हिस्सा	-4322
लिन	-4323
▁कतै	-4324
ियन्स	-4325
▁लेखन	-4326
▁कन्या	-4327
▁पञ्जाब	-4328
▁गरिन्थ्यो	-4329
▁विश्वसम्पदा	-4330
चेत	-4331
नीको	-4332
▁युन	-4333
▁हटा	-4334
▁उर्जा	-4335
▁हुन्थ्यो	-4336
▁शक्तिशाली	-4337
रुप	-4338
▁सकेको	-4339
▁हातमा	-4340
▁श्रीमती	-4341
▁महाराष्ट्र	-4342
क्सि	-4343
▁आगो	-4344
▁मासु	-4345
▁बराबर	-4346
▁मान्ने	-4347
▁इन्डोने	-4348
▁मार्क्स	-4349
भूत	-4350
▁१८६	-4351
देशिक	-4352
▁ट्रि	-4353
▁मोहन	-4354
▁हिउँ	-4355
▁गुप्त	-4356
▁राजवंश	-4357
▁राजेन्द्र	-4358
▁साहित्यको	-4359
कन	-4360
न्दी	-4361
ुराम	-4362
▁हार	-4363
▁थोरै	-4364
▁धातु	-4365
▁प्ला	-4366
वृत्ति	-4367
▁स्वाय	-4368
▁सम्राट	-4369
▁ओलम्पिक	-4370
राष्ट्रिय	-4371
▁गरिरहेको	-4372
▁किताब	-4373
▁जातीय	-4374
▁अफ्रिकी	-4375
▁महाभारत	-4376
▁मानिसहरूले	-4377
ँत	-4378
१२	-4379
१८	-4380
▁रूख	-4381
▁काला	-4382
▁अवधिमा	-4383
▁अवधारणा	-4384
▁४४	-4385
▁गराउन	-4386
▁समूहले	-4387
▁सम्वत्	-4388
▁द्वितीय	-4389
▁कार्यकाल	-4390
▁विश्वसम्पदाथन	-4391
▁४२	-4392
▁५४	-4393
ेट्स	-4394
▁दिएर	-4395
▁१९९३	-4396
▁कल्या	-4397
▁कोरिया	-4398
▁थाल्यो	-4399
ूट	-4400
१६	-4401
सागर	-4402
▁२०७९	-4403
▁नहुने	-4404
▁श्रृङ्ख	-4405
▁व्यक्तिको	-4406
१७	-4407
बुक	-4408
ित्स	-4409
▁एभिएन	-4410
▁ब्याट	-4411
▁लिगमा	-4412
▁चित्रण	-4413
▁युइएफए	-4414
▁डिजा	-4415
▁आत्मा	-4416
▁आमाको	-4417
▁एकीकरण	-4418
▁दुर्गा	-4419
▁बृ	-4420
रोधी	-4421
▁काँ	-4422
न्नति	-4423
▁यूरो	-4424
▁एकीकृत	-4425
▁दुर्घट	-4426
▁भूकम्प	-4427
निस	-4428
पला	-4429
भाइ	-4430
▁ठो	-4431
र्सि	-4432
▁सहज	-4433
▁साह	-4434
▁गरेमा	-4435
▁हिंसा	-4436
▁चरित्र	-4437
▁पुग्यो	-4438
▁अन्तरले	-4439
पथ	-4440
मर	-4441
▁रै	-4442
ण्डी	-4443
पक्ष	-4444
▁माई	-4445
▁खेलहरू	-4446
▁लोपोन्मुख	-4447
गति	-4448
तीमा	-4449
वान्	-4450
▁असोज	-4451
▁इन्द	-4452
▁मलाई	-4453
▁जनजाति	-4454
सीय	-4455
▁ऋण	-4456
▁बास	-4457
पर्दछ	-4458
▁बियो	-4459
▁कार्या	-4460
▁टोलीका	-4461
▁सक्दैन	-4462
▁अक्षांश	-4463
▁लम	-4464
न्टी	-4465
▁खरा	-4466
▁पुजा	-4467
▁मानसिक	-4468
▁शरीरको	-4469
▁तुलनामा	-4470
▁गई	-4471
गायत	-4472
▁आरोप	-4473
▁खेले	-4474
▁जर्ज	-4475
▁परिक	-4476
▁भएता	-4477
▁अस्वी	-4478
▁राखेका	-4479
▁लागेका	-4480
▁क्रिस्ट	-4481
▁त्यस्तो	-4482
▁पञ्चायत	-4483
▁पुस्तकाल	-4484
▁संस्करणमा	-4485
िज	-4486
ल्पा	-4487
्याम	-4488
ध्याय	-4489
▁सभाको	-4490
▁त्यसमा	-4491
न्टा	-4492
▁पदो	-4493
▁बस्न	-4494
▁रूसी	-4495
बिस	-4496
बाहेक	-4497
▁लाग्छ	-4498
▁सम्पादक	-4499
▁विरुद्धको	-4500
धिका	-4501
वेयर	-4502
▁मल्	-4503
वादको	-4504
▁मिडिया	-4505
नन्	-4506
▁फौ	-4507
▁कुश	-4508
धिकरण	-4509
पुत्र	-4510
हरुमा	-4511
ाउँदै	-4512
▁सर्प	-4513
▁साइट	-4514
▁नजिकै	-4515
▁कुखुरा	-4516
▁भाषाका	-4517
ण्य	-4518
▁यि	-4519
▁उनि	-4520
▁मकै	-4521
▁मदर	-4522
▁आसपा	-4523
▁पाउन	-4524
▁मैले	-4525
ेरा	-4526
नेको	-4527
▁जमीन	-4528
▁पट्ट	-4529
▁किनारमा	-4530
ङ्कन	-4531
▁भियत	-4532
▁हुदै	-4533
▁तालिका	-4534
▁दुईवटा	-4535
▁मन्त्रि	-4536
▁प्रस्तुति	-4537
▁प्रतिष्ठान	-4538
होर	-4539
ुरे	-4540
▁जवा	-4541
▁१९८६	-4542
▁बस्ती	-4543
▁भएपनि	-4544
▁पाण्डव	-4545
▁मनाउने	-4546
▁भट्टराई	-4547
िमि	-4548
द्वीप	-4549
▁निस्	-4550
▁दशकमा	-4551
▁विज्ञ	-4552
▁अन्ततः	-4553
▁फुटबलको	-4554
▁लिच्छवि	-4555
लास	-4556
साथै	-4557
▁भुक्त	-4558
▁शत्रु	-4559
▁तिनीहरू	-4560
▁हिसाबले	-4561
▁सहभागिता	-4562
र्ख	-4563
प्ती	-4564
कालको	-4565
▁जनताको	-4566
▁सन्देश	-4567
▁समयसम्म	-4568
▁समुदायको	-4569
▁पूर्वाञ्चल	-4570
पट्ट	-4571
▁जरा	-4572
▁घाँस	-4573
▁राजी	-4574
▁हुनस	-4575
▁वयस्क	-4576
कुटा	-4577
लीले	-4578
िलिङ	-4579
▁असम	-4580
▁मुगल	-4581
▁द्वन्द्व	-4582
▁स्थानहरूमा	-4583
▁वहाँ	-4584
पूर्ति	-4585
▁भुटान	-4586
▁शिक्षक	-4587
▁सेनापति	-4588
▁परिवारको	-4589
▁राजनीतिमा	-4590
▁बित	-4591
बोर्ड	-4592
▁गुरू	-4593
▁भावना	-4594
▁स्नातको	-4595
▁कमी	-4596
▁सेयर	-4597
▁अर्जे	-4598
▁जाँदा	-4599
▁हात्ती	-4600
कारात्मक	-4601
▁औद्योगिक	-4602
▁कांग्रेस	-4603
▁समालोचना	-4604
▁व्यापारिक	-4605
...	-4606
▁कय	-4607
न्ना	-4608
▁पित	-4609
गुप्त	-4610
ष्कार	-4611
▁खरिद	-4612
▁१९८८	-4613
▁खुट्टा	-4614
▁सेवामा	-4615
▁आयुर्वेद	-4616
▁बासिन्दा	-4617
▁क्रान्तिकारी	-4618
रुवा	-4619
▁आशा	-4620
▁बसेको	-4621
▁छिमेकी	-4622
▁मकवानपुर	-4623
▁मन्त्रालयले	-4624
▁४३	-4625
बारी	-4626
सीले	-4627
▁दुः	-4628
▁दियो	-4629
▁इलाका	-4630
▁प्रजनन	-4631
▁मिलाएर	-4632
▁उपस्थित	-4633
निन	-4634
▁आदी	-4635
▁क्य	-4636
▁परिचय	-4637
▁फाइनल	-4638
▁धनकुटा	-4639
▁राजाले	-4640
ल्यै	-4641
▁तोक	-4642
▁फुल	-4643
▁कसैले	-4644
▁दार्ज	-4645
▁जीवनमा	-4646
▁बङ्गलादेशी	-4647
हण	-4648
▁नज	-4649
▁रौ	-4650
▁काउ	-4651
▁जगत	-4652
▁डटकम	-4653
▁किरात	-4654
▁सहयोगी	-4655
▁मन्त्रिपरिष	-4656
२५	-4657
हिक	-4658
्रिक	-4659
▁खाल	-4660
▁समी	-4661
▁क्रो	-4662
▁अग्नि	-4663
▁गोपाल	-4664
▁हरियो	-4665
▁ग्रामीण	-4666
भौ	-4667
वीर	-4668
▁भ्र	-4669
▁गम्भ	-4670
▁छनौट	-4671
▁पाटन	-4672
▁पार्व	-4673
▁बोर्ड	-4674
▁पर्याप्त	-4675
कका	-4676
▁आलु	-4677
▁फेस	-4678
▁पद्ध	-4679
नाइटेड	-4680
▁बलियो	-4681
▁विजयी	-4682
▁सिफार	-4683
▁सम्प्रदाय	-4684
▁५६	-4685
्युब	-4686
▁लागी	-4687
▁बाध्य	-4688
▁गम्भीर	-4689
▁दृष्टिकोण	-4690
न्सर	-4691
▁श्रो	-4692
▁काङ्ग	-4693
▁पशुपति	-4694
▁वरिष्ठ	-4695
▁मनाइन्छ	-4696
▁विरुद्धमा	-4697
▁चलचित्रहरूमा	-4698
▁ज्व	-4699
▁दुध	-4700
▁गोला	-4701
▁२०६३	-4702
▁२०७५	-4703
▁उसलाई	-4704
▁कास्की	-4705
▁प्रतिभा	-4706
▁स्नातकोत्तर	-4707
ंद	-4708
काई	-4709
सरी	-4710
िटल	-4711
▁पप	-4712
▁मले	-4713
▁अरबी	-4714
▁सृजना	-4715
▁बताएका	-4716
▁भण्डार	-4717
▁भीमसेन	-4718
▁शास्त्रीय	-4719
ये	-4720
▁अर	-4721
जनको	-4722
र्जी	-4723
▁नवल	-4724
▁राउ	-4725
▁हाउ	-4726
ञ्चोक	-4727
शमशेर	-4728
▁अल्प	-4729
▁समग्र	-4730
▁अवलोकन	-4731
▁स्तरमा	-4732
▁विज्ञापन	-4733
ँगा	-4734
दास	-4735
▁गढ	-4736
वाला	-4737
▁भोट	-4738
▁युव	-4739
▁१८५	-4740
▁१९८३	-4741
यात्रा	-4742
िरहेका	-4743
▁हावापानी	-4744
ीले	-4745
त्रि	-4746
्रेक	-4747
▁परे	-4748
▁बेइ	-4749
कालिक	-4750
▁पुष्	-4751
▁मुसल	-4752
▁युनि	-4753
▁साउदी	-4754
▁कुमारी	-4755
▁श्रीकृष्ण	-4756
▁व्यक्तिहरू	-4757
ज्र	-4758
पार	-4759
▁रक	-4760
▁आउन	-4761
▁कञ्च	-4762
▁पालन	-4763
▁सुना	-4764
▁सेवन	-4765
▁आदर्श	-4766
▁गठबन्ध	-4767
▁वर्षसम्म	-4768
▁व्यापारी	-4769
▁ओख	-4770
न्डो	-4771
शाही	-4772
िल्ड	-4773
▁ठाँ	-4774
▁तिल	-4775
▁पोल	-4776
▁बाब	-4777
▁बराब	-4778
▁बोला	-4779
▁भानु	-4780
▁रेस्	-4781
▁शिखर	-4782
▁यिनले	-4783
▁अध्याय	-4784
दानी	-4785
▁थाइ	-4786
▁बोल्	-4787
▁भैरव	-4788
▁मोरङ	-4789
▁बाह्र	-4790
▁राज्यका	-4791
▁अस्ट्रेलिया	-4792
१०	-4793
िनो	-4794
▁हजुर	-4795
▁अङ्ग्रे	-4796
▁विश्वमा	-4797
▁निम्नलिखित	-4798
▁ईसा	-4799
▁मेस	-4800
▁जोडी	-4801
▁प्रि	-4802
▁पार्ने	-4803
▁महर्षि	-4804
▁लिइन्छ	-4805
▁प्रशासन	-4806
क्छ	-4807
डान	-4808
नान	-4809
▁हक	-4810
▁४६	-4811
▁अहि	-4812
▁केश	-4813
▁पेशा	-4814
▁चोट	-4815
▁छाप	-4816
▁शरण	-4817
▁एण्ड	-4818
▁कोठा	-4819
▁बन्ने	-4820
▁शेर्पा	-4821
▁कारखाना	-4822
▁तिनीहरूको	-4823
रस	-4824
जात	-4825
▁घाइ	-4826
▁दोल	-4827
हरुले	-4828
▁प्रव	-4829
▁खण्डमा	-4830
▁आदिवासी	-4831
▁अस्वीकार	-4832
▁आउ	-4833
▁लभ	-4834
पर्व	-4835
वर्ण	-4836
िएकी	-4837
▁तुलना	-4838
▁मदरसा	-4839
▁शिलालेख	-4840
▁कुँ	-4841
▁नारी	-4842
▁मोटर	-4843
▁संचाल	-4844
▁चिकित्स	-4845
्याङ	-4846
▁कन्	-4847
▁छैनन्	-4848
▁यन्त्र	-4849
▁सङ्गालो	-4850
▁कार्यकर्ता	-4851
स्ति	-4852
▁कोट	-4853
▁जुट	-4854
▁अछाम	-4855
▁कोही	-4856
▁१९८७	-4857
▁अपराध	-4858
▁वसन्त	-4859
▁सूत्र	-4860
▁अफगानि	-4861
▁अभ्यास	-4862
▁क्लबले	-4863
▁सन्दर्भमा	-4864
▁आत	-4865
▁डट	-4866
▁एले	-4867
▁टिक	-4868
▁नास	-4869
▁नाइट	-4870
▁मान्द	-4871
▁ढुङ्गा	-4872
▁पारेको	-4873
▁खेलाडीको	-4874
▁फर्	-4875
▁मधु	-4876
▁शुभ	-4877
▁तेलु	-4878
▁यादव	-4879
▁धारणा	-4880
▁सङ्गठ	-4881
▁याताया	-4882
▁विश्वयुद्ध	-4883
व्	-4884
दीको	-4885
स्तर	-4886
▁दबा	-4887
▁२०६४	-4888
▁कञ्चन	-4889
▁तपाईँ	-4890
▁त्यसबेला	-4891
ल्फ	-4892
▁गत	-4893
न्ता	-4894
दर्शन	-4895
▁ईश्वर	-4896
▁जितेका	-4897
▁पानीमा	-4898
▁स्त्री	-4899
▁प्राधिकरण	-4900
र्घ	-4901
ोमा	-4902
▁खत	-4903
▁मुनि	-4904
▁समुह	-4905
▁सार्	-4906
▁बाल्य	-4907
▁परिभाषा	-4908
▁उद्योगमा	-4909
▁समुन्द्र	-4910
▁सिर	-4911
लिङ्ग	-4912
▁शुक्र	-4913
▁पूर्णिमा	-4914
▁उपत्यकामा	-4915
▁तिम	-4916
क्ष्म	-4917
▁चिसो	-4918
▁जोशी	-4919
▁ट्रे	-4920
▁सिका	-4921
▁सामूह	-4922
शास्त्री	-4923
▁निर्यात	-4924
▁वास्तवमा	-4925
▁इतिहासकार	-4926
▁कार्यक्रमको	-4927
परी	-4928
▁६५	-4929
ब्बा	-4930
भर्स	-4931
▁झार	-4932
▁धनी	-4933
▁सरल	-4934
▁सोम	-4935
▁गीतकार	-4936
श्रो	-4937
▁परम	-4938
▁माध	-4939
▁विव	-4940
▁टेस्ट	-4941
▁लगाउन	-4942
क्षिप्त	-4943
▁विभागमा	-4944
▁श्राद्ध	-4945
▁स्थलहरू	-4946
▁व्यवस्थाप	-4947
▁महानगरपालिका	-4948
साइ	-4949
कलाई	-4950
वर्क	-4951
▁मेट	-4952
▁उडान	-4953
▁फेला	-4954
▁भनाइ	-4955
▁हृदय	-4956
▁बढ्दै	-4957
▁जन्मेका	-4958
▁काभ्रेपला	-4959
▁संस्करणको	-4960
पं	-4961
शोर	-4962
▁ऋष	-4963
▁नजी	-4964
▁सफा	-4965
▁खोज्	-4966
▁फ्या	-4967
▁मेची	-4968
विज्ञान	-4969
▁भन्छन्	-4970
▁कह	-4971
सङ्घ	-4972
ेनले	-4973
्चोक	-4974
▁अली	-4975
जन्तु	-4976
▁घाइते	-4977
▁वर्षे	-4978
▁देवीको	-4979
▁डिज	-4980
पश्चा	-4981
▁भाले	-4982
▁कल्याण	-4983
▁मनोनित	-4984
▁हतियार	-4985
▁मुसलमान	-4986
▁सामूहिक	-4987
▁अंग्रेजी	-4988
▁प्रशिक्षक	-4989
▁दम	-4990
जस्ता	-4991
वर्ती	-4992
▁कल्प	-4993
▁रुकु	-4994
कहरूले	-4995
▁फिलिप	-4996
▁सक्षम	-4997
▁कानुनी	-4998
▁बिस्तार	-4999
▁अधिग्रहण	-5000
▁प्रमाणित	-5001
ण्ठ	-5002
नेका	-5003
▁खेत	-5004
▁नभई	-5005
▁फोन	-5006
▁बोट	-5007
▁खैरो	-5008
▁गुल्	-5009
▁१९५०	-5010
▁पुष्टि	-5011
▁मामिला	-5012
▁लेख्ने	-5013
▁नारायणी	-5014
▁गर्नुपर्छ	-5015
▁जङ्गबहादुर	-5016
▁टुक	-5017
▁एकेड	-5018
▁केरा	-5019
▁चारै	-5020
▁नदीमा	-5021
▁उचाइमा	-5022
▁इन्डिया	-5023
▁सशस्त्र	-5024
▁युनाइटेड	-5025
▁दार्जिलिङ	-5026
▁दक्षिणपूर्व	-5027
सद	-5028
जारी	-5029
▁चल्	-5030
▁स्टु	-5031
७०	-5032
▁नाय	-5033
▁अशोक	-5034
▁पक्र	-5035
▁मधेश	-5036
▁दोश्रो	-5037
▁पुराना	-5038
▁भित्री	-5039
▁स्वामी	-5040
▁भइसकेको	-5041
▁च्याम्पियन्स	-5042
दिव	-5043
बजार	-5044
▁उचित	-5045
▁साउन	-5046
▁समूहमा	-5047
▁सरकारलाई	-5048
▁इलेक्ट्रो	-5049
▁विश्वविद्यालयमा	-5050
िनु	-5051
▁ल्	-5052
सामा	-5053
▁सारा	-5054
▁१९६०	-5055
▁एकादशी	-5056
▁बुझिन्छ	-5057
▁विद्रोह	-5058
▁धर्मावलम्ब	-5059
खेल	-5060
िरा	-5061
तिजा	-5062
▁कलक	-5063
▁जसो	-5064
▁विध	-5065
पोर्ट	-5066
ेनिया	-5067
▁छाया	-5068
▁लागे	-5069
▁एसियामा	-5070
▁कृतिलाई	-5071
ुङ	-5072
९९	-5073
जलाई	-5074
द्या	-5075
न्सी	-5076
वर्ष	-5077
▁एजे	-5078
▁राइ	-5079
▁अगष्ट	-5080
▁थिएनन्	-5081
▁बिरामी	-5082
▁जन्मिएका	-5083
▁अस्तित्वमा	-5084
▁साम्राज्यको	-5085
▁मुख्यमन्त्री	-5086
ेछा	-5087
्दो	-5088
मीको	-5089
▁अलि	-5090
▁इला	-5091
▁वार	-5092
ेरिया	-5093
▁किमी	-5094
▁न्यून	-5095
▁बसेका	-5096
▁किसिमका	-5097
▁सञ्चालित	-5098
▁केन्द्रको	-5099
▁काठमाडौँमा	-5100
ामु	-5101
प्रथम	-5102
▁सेके	-5103
▁चौधरी	-5104
▁तनहुँ	-5105
▁दोलखा	-5106
▁मध्यम	-5107
▁समुद्री	-5108
▁हित	-5109
डाँडा	-5110
नैतिक	-5111
▁अन्ध	-5112
▁तस्वी	-5113
▁उहाँले	-5114
▁दिइन्छ	-5115
▁बुद्धि	-5116
▁वार्ता	-5117
▁डब्ल्यू	-5118
▁भन्दछन्	-5119
▁राजकुमार	-5120
▁क्षेत्रबाट	-5121
▁ईसं	-5122
▁राखी	-5123
▁सुनि	-5124
▁कार्ड	-5125
▁चिन्त	-5126
▁लगाएर	-5127
▁शासनको	-5128
▁फलस्वरूप	-5129
र्नर	-5130
▁आइस	-5131
▁लियो	-5132
▁१९७२	-5133
▁बेस्ट	-5134
▁प्रतीक	-5135
मन्त्रीको	-5136
▁जिल्लाले	-5137
▁कान्तिपुर	-5138
२३	-5139
▁नभए	-5140
ाइन्छ	-5141
▁ठाँउ	-5142
▁बुवा	-5143
▁मौसम	-5144
▁सँगै	-5145
▁फाइदा	-5146
▁डिजाइन	-5147
▁पाण्डे	-5148
▁रामेछा	-5149
▁अत्यधिक	-5150
▁नेटवर्क	-5151
▁सर्वसाधारण	-5152
▁सत	-5153
क्सन	-5154
▁अवि	-5155
▁लघु	-5156
्याकड	-5157
▁भोजन	-5158
ाउँछन्	-5159
▁क्लबको	-5160
▁पाइएको	-5161
▁अन्त्यमा	-5162
▁कहिलेकाही	-5163
▁राजतन्त्र	-5164
▁काठमाडौँको	-5165
िएस	-5166
▁आवि	-5167
▁रोमन	-5168
▁एमाले	-5169
▁ज्यान	-5170
▁ट्याग	-5171
▁कार्की	-5172
▁तेलुगु	-5173
▁ज्योतिष	-5174
सीमा	-5175
▁चतु	-5176
▁बैत	-5177
िमिटर	-5178
▁माल्	-5179
▁मिथि	-5180
▁क्यार	-5181
▁भण्डारी	-5182
▁उपत्यकाको	-5183
▁संविधानसभा	-5184
▁कार्यक्रमहरू	-5185
१३	-5186
जिब	-5187
▁धू	-5188
त्सव	-5189
▁बाबा	-5190
▁रिया	-5191
▁लगाए	-5192
▁वन्य	-5193
▁भइरहेको	-5194
▁प्रजातिका	-5195
▁प्रणालीको	-5196
हीन	-5197
स्वा	-5198
ुद्ध	-5199
▁तौल	-5200
▁धारण	-5201
▁सिटी	-5202
▁इत्या	-5203
▁कमजोर	-5204
▁एघारौँ	-5205
▁समाधान	-5206
▁कार्यमा	-5207
▁त्यतिबेला	-5208
▁गर्नुपर्ने	-5209
दमा	-5210
▁घिम	-5211
▁दोष	-5212
▁पुल	-5213
▁क्वा	-5214
▁पल्ट	-5215
▁जीवित	-5216
▁आकारको	-5217
▁राख्नु	-5218
▁विरोधी	-5219
▁स्म्याकड	-5220
जय	-5221
फि	-5222
४८	-5223
ुरूप	-5224
▁कसै	-5225
▁अर्ध	-5226
▁बाहु	-5227
▁सहिद	-5228
▁फलफूल	-5229
▁देशहरू	-5230
जीव	-5231
संघ	-5232
▁अत	-5233
▁भोग	-5234
▁५००	-5235
विन्द	-5236
क्तिको	-5237
हरुलाई	-5238
▁अनुया	-5239
▁टिमको	-5240
▁स्मारक	-5241
▁मुख्यालय	-5242
▁वर्गीकरण	-5243
▁तात्कालिक	-5244
▁रङ	-5245
्वाँ	-5246
▁चैत	-5247
▁युट	-5248
▁सिट	-5249
क्सको	-5250
▁निकट	-5251
▁१९८५	-5252
▁थालेको	-5253
▁निर्भर	-5254
▁मनुष्य	-5255
▁देखिएको	-5256
▁भरि	-5257
▁शीत	-5258
▁खाडी	-5259
▁बिता	-5260
▁विरू	-5261
▁पौडेल	-5262
▁रोगको	-5263
▁बैङ्कको	-5264
▁सफ्टवेयर	-5265
खिल	-5266
▁तृ	-5267
धारी	-5268
न्डी	-5269
▁गाउ	-5270
शालामा	-5271
▁चलेको	-5272
▁सम्मेलन	-5273
▁बिलबोर्ड	-5274
▁इन्जिनियरि	-5275
८८	-5276
नीति	-5277
▁शनि	-5278
▁१९४७	-5279
▁पछिको	-5280
▁क्यालि	-5281
▁महाकाली	-5282
▁सहकार्य	-5283
▁आन्दोलनको	-5284
ुड	-5285
नुपा	-5286
स्का	-5287
▁जला	-5288
▁रहमान	-5289
▁लमजुङ	-5290
वैधानिक	-5291
▁रहेकोे	-5292
▁संहिता	-5293
▁सतहबाट	-5294
▁संसारको	-5295
▁साथसाथै	-5296
आइ	-5297
घन	-5298
७५	-5299
गको	-5300
▁धर	-5301
दन्ती	-5302
▁कारो	-5303
▁प्रस	-5304
▁स्का	-5305
त्तिको	-5306
▁बढेको	-5307
▁पोखरेल	-5308
▁लगाएका	-5309
▁स्थाना	-5310
▁पत्रकारिता	-5311
▁सुदूरपश्चिम	-5312
लत	-5313
▁चयन	-5314
▁चौडा	-5315
▁नष्ट	-5316
▁नाति	-5317
▁शेयर	-5318
▁उपमहा	-5319
▁घाँटी	-5320
▁त्याग	-5321
▁सवारी	-5322
▁सातौँ	-5323
▁कैलाली	-5324
▁लिम्बु	-5325
▁सदस्यको	-5326
▁स्वायत्त	-5327
▁श्रृङ्खलामा	-5328
४०	-5329
जीले	-5330
▁फोर	-5331
नागरी	-5332
▁पद्म	-5333
▁तापनि	-5334
▁पुग्ने	-5335
▁एसियाका	-5336
▁कहिल्यै	-5337
फाइन	-5338
कर्मी	-5339
पेक्ष	-5340
▁उपाय	-5341
▁गणना	-5342
▁घुम्	-5343
▁अगस्त	-5344
▁राम्र	-5345
▁तस्वीर	-5346
▁समेटेर	-5347
▁महासचिव	-5348
▁विकासका	-5349
इम	-5350
▁कोश	-5351
▁दही	-5352
▁पन्त	-5353
▁भनाई	-5354
▁सत्र	-5355
न्दर्य	-5356
▁चिन्ह	-5357
▁टोलीमा	-5358
▁भगवान्	-5359
▁लैङ्गिक	-5360
▁व्यक्तिहरूको	-5361
▁अक	-5362
रामा	-5363
▁ताइ	-5364
▁फोटो	-5365
▁बोली	-5366
▁तीव्र	-5367
▁लेख्न	-5368
▁अभिव्य	-5369
▁प्राणी	-5370
▁महाराज	-5371
▁महिलाहरू	-5372
▁सर्वप्रथम	-5373
हू	-5374
▁लस	-5375
न्मा	-5376
▁तयारी	-5377
▁सम्बो	-5378
▁प्रज्ञा	-5379
जान	-5380
क्की	-5381
लामी	-5382
▁सिक	-5383
ियाले	-5384
▁आश्रम	-5385
▁मेडिकल	-5386
▁रोजगारी	-5387
▁अर्जेन्टि	-5388
ैमा	-5389
ाममा	-5390
▁कन्न	-5391
▁लन्ड	-5392
▁लागु	-5393
यन्त्र	-5394
▁प्रेस	-5395
पाल्चोक	-5396
▁स्मृति	-5397
▁फाइनलमा	-5398
▁रेस्लिङ	-5399
▁प्रतिवेदन	-5400
▁काभ्रेपलाञ्चोक	-5401
यस	-5402
११	-5403
३६	-5404
बर्ग	-5405
▁भेद	-5406
▁सिल	-5407
▁कपिल	-5408
▁बाँच	-5409
▁१९७५	-5410
▁तेह्र	-5411
▁भन्नु	-5412
▁मतदान	-5413
▁गर्दछन	-5414
▁धेरैजसो	-5415
▁प्रशंसा	-5416
▁चन्द्रमा	-5417
▁सङ्क्रमण	-5418
२८	-5419
ंको	-5420
मेन	-5421
ियु	-5422
काण्ड	-5423
क्षेप	-5424
▁डाँडा	-5425
▁मानिने	-5426
▁सिफारिस	-5427
▁परिवारका	-5428
भाषित	-5429
▁छिटो	-5430
▁थिइन	-5431
▁पन्छ	-5432
ानुसार	-5433
▁जैविक	-5434
▁प्रथा	-5435
▁प्रभु	-5436
▁सभामा	-5437
▁पाईन्छ	-5438
▁बाहिरी	-5439
▁पार्टीले	-5440
▁सौन्दर्य	-5441
घु	-5442
मेल	-5443
र्ब	-5444
▁८९	-5445
भूति	-5446
▁ढाँ	-5447
▁पेन	-5448
▁कथान	-5449
▁तिथि	-5450
▁गर्मी	-5451
▁दर्जा	-5452
▁पुर्य	-5453
▁शुल्क	-5454
▁क्लबका	-5455
▁प्रगति	-5456
▁म्याकम	-5457
▁देवताको	-5458
▁मुलुकमा	-5459
▁हुनुपर्छ	-5460
▁क्रियाकला	-5461
▁वीरेन्द्र	-5462
▁उद्देश्यले	-5463
टार	-5464
र्प	-5465
▁जाल	-5466
▁बजे	-5467
▁उपवि	-5468
▁युरो	-5469
सायनिक	-5470
▁देवनागरी	-5471
▁अन्तरिक्ष	-5472
▁पुस्तकालय	-5473
▁धर्मावलम्बी	-5474
िब	-5475
क्रे	-5476
▁छाड	-5477
▁मणि	-5478
▁सिख	-5479
ाउन्ड	-5480
▁इमिर	-5481
▁रहेर	-5482
▁हवाई	-5483
▁जङ्गल	-5484
▁मार्क	-5485
नुपातिक	-5486
▁अष्ट्र	-5487
▁नामकरण	-5488
▁सार्वभौ	-5489
▁स्टुडियो	-5490
▁उपाध्यक्ष	-5491
▁संवैधानिक	-5492
▁नगरपालिकामा	-5493
▁सिन्धुपाल्चोक	-5494
ङक	-5495
टिक	-5496
रीका	-5497
िनले	-5498
▁नहर	-5499
ानीको	-5500
▁जानु	-5501
▁मापद	-5502
▁होस्	-5503
कहरूको	-5504
▁गीतमा	-5505
▁रेसलम	-5506
▁अवसरमा	-5507
▁समाजको	-5508
▁सिनेमा	-5509
▁हेर्ने	-5510
▁माइक्रो	-5511
▁शिक्षाको	-5512
▁उत्तराखण्ड	-5513
ंशा	-5514
साको	-5515
▁इजि	-5516
▁यथार्थ	-5517
▁कृतिहरू	-5518
▁तरिकाले	-5519
▁राष्ट्रहरू	-5520
ंच	-5521
राग	-5522
शेर	-5523
▁अला	-5524
त्रीको	-5525
▁गहिरो	-5526
▁श्रेण	-5527
▁सिकार	-5528
▁नवलपरा	-5529
्राचार्य	-5530
▁प्रशस्त	-5531
▁जिल्लाकै	-5532
▁नगरपालिकाहरू	-5533
साल	-5534
कर्ण	-5535
▁डिक	-5536
▁दिई	-5537
▁बडा	-5538
▁बसे	-5539
▁साब	-5540
▁घरको	-5541
▁भ्या	-5542
▁शाके	-5543
▁१९८१	-5544
▁एकदिव	-5545
▁किनकि	-5546
▁चैत्र	-5547
▁स्थिर	-5548
▁डाक्टर	-5549
▁लम्बाई	-5550
▁विराटन	-5551
▁अनुयायी	-5552
▁अन्तर्ग	-5553
▁एकमात्र	-5554
▁लोकतान्त्रिक	-5555
▁अन्तराष्ट्रिय	-5556
धर	-5557
लभ	-5558
टाङ	-5559
▁ये	-5560
दारी	-5561
▁जीत	-5562
▁बग्	-5563
▁वेस्ट	-5564
▁जनाएका	-5565
▁थापाले	-5566
▁व्याकरण	-5567
▁विद्यालयमा	-5568
मूल	-5569
ड्रो	-5570
त्सा	-5571
▁बिस	-5572
▁शिर	-5573
▁खाता	-5574
▁गिती	-5575
▁पहेँ	-5576
▁एकेडे	-5577
▁झण्डा	-5578
▁प्रकट	-5579
▁प्रयोगमा	-5580
गे	-5581
७८	-5582
▁मर	-5583
क्टो	-5584
क्लो	-5585
र्खेत	-5586
▁सुझा	-5587
▁कालका	-5588
▁बैशाख	-5589
▁मालिक	-5590
▁शहरको	-5591
▁सुनको	-5592
▁अन्तमा	-5593
▁छुट्या	-5594
▁दृष्टिले	-5595
▁मनोरञ्जन	-5596
थले	-5597
▁इस	-5598
यतको	-5599
म्बेड	-5600
▁बिजु	-5601
▁मेरी	-5602
क्रमित	-5603
▁अनिवा	-5604
▁शिकार	-5605
निर्माण	-5606
▁अत्यन्तै	-5607
▁परिभाषित	-5608
▁प्रभावकारी	-5609
कूल	-5610
▁भय	-5611
टाको	-5612
सेवा	-5613
▁गाभ	-5614
▁जैन	-5615
▁निम	-5616
▁बाइ	-5617
▁श्व	-5618
फोर्न	-5619
▁कर्त	-5620
▁सेती	-5621
▁फेसबुक	-5622
▁बिरुवा	-5623
▁सम्मिल	-5624
▁अनिवार्य	-5625
▁क्यान्सर	-5626
▁और	-5627
ानाको	-5628
▁खुवा	-5629
▁दोहो	-5630
▁मौका	-5631
▁लेखि	-5632
▁कर्ना	-5633
▁दीर्घ	-5634
▁म्याड	-5635
▁अधिकृत	-5636
▁राजनैतिक	-5637
▁संक्षिप्त	-5638
▁सङ्ग्रहालय	-5639
▁आल	-5640
▁छल	-5641
नीमा	-5642
न्यु	-5643
▁सोच	-5644
▁जटिल	-5645
▁तर्क	-5646
▁बलिउड	-5647
▁भागको	-5648
▁बताइएको	-5649
▁सुर्खेत	-5650
भेद	-5651
▁उभ	-5652
जिलो	-5653
म्पा	-5654
▁कमल	-5655
धारित	-5656
▁ढोका	-5657
▁म्यु	-5658
▁उपमहान	-5659
▁स्तम्भ	-5660
▁मैदानमा	-5661
▁व्यक्तिलाई	-5662
▁उत्तराधिकारी	-5663
६०	-5664
ङ्गे	-5665
▁खालको	-5666
▁प्रको	-5667
▁पक्राउ	-5668
▁प्रताप	-5669
▁कलकत्ता	-5670
▁प्राचिन	-5671
▁महत्वपूर्ण	-5672
▁पाकिस्तानमा	-5673
७३	-5674
▁५९	-5675
नाका	-5676
▁उन्	-5677
▁जमा	-5678
▁नार	-5679
▁पाप	-5680
▁आश्र	-5681
▁राखे	-5682
▁घेरेको	-5683
▁गर्छिन्	-5684
▁गर्नाले	-5685
▁बहुमुखी	-5686
▁बियोन्स	-5687
▁एनएक्सटी	-5688
▁प्रान्तको	-5689
▁प्रजातान्त्रिक	-5690
सुक	-5691
रानी	-5692
▁मंस	-5693
▁आर्ट	-5694
▁जसबाट	-5695
▁स्नान	-5696
▁गराएका	-5697
▁सक्दछन्	-5698
▁देखिन्छन्	-5699
▁संस्थाहरू	-5700
▁गाउँपालिकाहरू	-5701
४५	-5702
ङले	-5703
▁मठ	-5704
म्बू	-5705
विद्	-5706
▁करा	-5707
▁गोप	-5708
▁दाङ	-5709
▁सुग	-5710
त्कार	-5711
न्वयन	-5712
वर्धन	-5713
▁बजेट	-5714
▁महार	-5715
▁अन्डर	-5716
▁इजिप्ट	-5717
▁भुमिका	-5718
▁विकासमा	-5719
▁सङ्घर्ष	-5720
चरण	-5721
जाल	-5722
▁डल	-5723
▁८८	-5724
▁बुढा	-5725
▁१९८२	-5726
▁संघर्ष	-5727
▁अघिल्लो	-5728
▁स्थानिय	-5729
▁पदोन्नति	-5730
▁सम्मिलित	-5731
▁शृङ्खलामा	-5732
▁राष्ट्रपतिको	-5733
डर	-5734
ुप	-5735
ासँग	-5736
्राइ	-5737
▁सिन	-5738
▁क्ला	-5739
▁मिसा	-5740
▁मुटु	-5741
▁पुलिस	-5742
▁बैतडी	-5743
▁लगाएको	-5744
हरूमध्ये	-5745
खर्क	-5746
▁सके	-5747
▁एम्ब	-5748
▁नभएर	-5749
▁पितृ	-5750
▁याहु	-5751
▁भोजपुर	-5752
▁आकर्षित	-5753
▁वैदेशिक	-5754
फिक	-5755
भोग	-5756
▁४१	-5757
जिलै	-5758
▁रिस	-5759
▁रोप	-5760
क्सले	-5761
▁आइपु	-5762
▁नगरी	-5763
▁बसाइँ	-5764
▁राक्ष	-5765
▁पन्जाब	-5766
व्यवस्था	-5767
▁एकदिवसीय	-5768
▁अपे	-5769
▁एएफ	-5770
▁कक्ष	-5771
▁तहको	-5772
▁सिजन	-5773
▁बेङ्क	-5774
▁गोल्डक	-5775
▁च्यानल	-5776
▁टुक्रा	-5777
▁ट्रिपल	-5778
▁राप्ती	-5779
▁चुनावमा	-5780
▁यम	-5781
उँदछ	-5782
▁पला	-5783
▁१८०	-5784
पोखरी	-5785
▁किरण	-5786
▁दिला	-5787
▁दुःख	-5788
▁विस्	-5789
▁जनाको	-5790
▁सजिलै	-5791
▁हल्का	-5792
▁उदयपुर	-5793
▁शीर्षक	-5794
▁पर्दापण	-5795
▁मापदण्ड	-5796
▁समीक्षा	-5797
▁व्यक्तिले	-5798
▁अन्तर्गतको	-5799
▁तट	-5800
वेदन	-5801
▁बंग	-5802
नाल्ड	-5803
▁करीब	-5804
▁ध्रु	-5805
▁लिनु	-5806
▁ठाउँको	-5807
▁हेक्टर	-5808
▁प्रदायक	-5809
▁समुदायमा	-5810
६५	-5811
कुरी	-5812
द्वी	-5813
▁कोरो	-5814
▁प्रच	-5815
▁फलाम	-5816
▁आग्रह	-5817
▁चीनमा	-5818
▁पीडित	-5819
स्थानको	-5820
▁ताप्ले	-5821
▁स्टेशन	-5822
▁सालदेखि	-5823
क्षु	-5824
▁किशोर	-5825
▁कुकुर	-5826
▁पिण्ड	-5827
▁सक्दछ	-5828
▁हुर्क	-5829
▁रोनाल्ड	-5830
▁त्यसैगरी	-5831
▁क्यालिफोर्न	-5832
तान	-5833
▁घरध	-5834
▁बीउ	-5835
▁वाम	-5836
▁सदा	-5837
मण्डल	-5838
▁एकता	-5839
▁१९७४	-5840
▁बहुमत	-5841
▁मुजिब	-5842
▁सहमति	-5843
▁स्पेनी	-5844
▁सिन्धुली	-5845
लिपि	-5846
ूलको	-5847
▁इरा	-5848
▁लिई	-5849
▁वास	-5850
▁जाँच	-5851
▁ठुला	-5852
ढुङ्गा	-5853
▁तालिम	-5854
▁पूँजी	-5855
▁प्राण	-5856
▁बाह्य	-5857
▁लिङ्ग	-5858
▁तपस्या	-5859
▁मोर्चा	-5860
ग्ध	-5861
▁ढि	-5862
घाटन	-5863
प्रे	-5864
ाल्ट	-5865
▁इसं	-5866
▁जोग	-5867
▁बजा	-5868
▁बाज	-5869
▁रोक	-5870
▁गुगल	-5871
▁राजन	-5872
▁कथानक	-5873
▁अधिकतम	-5874
२२	-5875
प्स	-5876
ैया	-5877
ुरोध	-5878
्रिड	-5879
▁उठा	-5880
▁चोक	-5881
▁पोथी	-5882
▁संशो	-5883
▁सजाय	-5884
▁१९७३	-5885
▁ढाँचा	-5886
▁बढ्दो	-5887
▁गाउँको	-5888
▁गुल्मी	-5889
▁पहेँलो	-5890
▁सिद्धि	-5891
▁मिनेटमा	-5892
▁आन्दोलनमा	-5893
न्थी	-5894
▁मेर	-5895
▁सही	-5896
ण्डित	-5897
▁ट्या	-5898
▁लगाई	-5899
▁२०४८	-5900
▁आफ्नी	-5901
▁घरहरू	-5902
▁मंसिर	-5903
▁वडामा	-5904
▁अनुरोध	-5905
▁रामेछाप	-5906
▁रुपैयाँ	-5907
▁नवलपरासी	-5908
▁मन्त्रिपरिषद्	-5909
▁उपमहानगरपालिका	-5910
पूर	-5911
▁घन	-5912
▁श्	-5913
त्तै	-5914
▁बुध	-5915
▁समृ	-5916
▁गरिए	-5917
▁बर्द	-5918
▁मैथि	-5919
▁उत्तम	-5920
▁दरवार	-5921
▁परमाण	-5922
▁विपरी	-5923
▁थालेका	-5924
▁मल्लले	-5925
वित	-5926
ालि	-5927
कासन	-5928
▁खडा	-5929
▁जाम	-5930
▁विघ	-5931
▁सोध	-5932
▁हङक	-5933
▁हेल	-5934
▁ग्लो	-5935
▁धादि	-5936
▁रुचि	-5937
▁तुलसी	-5938
▁मासिक	-5939
▁अङ्ग्रेज	-5940
▁सम्बन्धि	-5941
▁विद्युतीय	-5942
▁विश्वकपमा	-5943
▁छर	-5944
नेली	-5945
ेलको	-5946
▁भूत	-5947
ाउनको	-5948
▁इतिहा	-5949
▁शहरमा	-5950
▁ब्ल्या	-5951
▁महासागर	-5952
▁विशेषज्ञ	-5953
निज	-5954
▁गभ	-5955
▁पच	-5956
बाटै	-5957
▁बढि	-5958
▁केटी	-5959
▁गराए	-5960
▁फाल्	-5961
▁वाला	-5962
▁द्वीप	-5963
▁पोर्चु	-5964
७२	-5965
याल	-5966
▁तस	-5967
ण्डौ	-5968
▁तरल	-5969
▁बुट	-5970
प्पणी	-5971
ियरको	-5972
▁अमृत	-5973
▁झरना	-5974
ोग्राम	-5975
▁जर्मनीको	-5976
▁शासनकालमा	-5977
राव	-5978
साह	-5979
ल्लु	-5980
▁नाइ	-5981
▁भालु	-5982
▁१९७९	-5983
ेश्वरी	-5984
▁अण्डा	-5985
▁पुण्य	-5986
▁सेक्स	-5987
▁जनाउँछ	-5988
▁परमाणु	-5989
▁मिल्ने	-5990
▁आधारभूत	-5991
▁एकेडेमी	-5992
▁दिनसम्म	-5993
▁हाइड्रो	-5994
▁परिस्थिति	-5995
▁गह	-5996
▁टेक	-5997
▁डाइ	-5998
▁यहा	-5999
▁कानू	-6000
▁घोडा	-6001
▁रौतह	-6002
▁केदार	-6003
▁वृद्ध	-6004
▁कुराको	-6005
▁धर्ममा	-6006
▁म्याग्	-6007
▁राज्यहरू	-6008
▁समितिहरूलाई	-6009
छु	-6010
किने	-6011
स्ने	-6012
▁आँप	-6013
▁बिग	-6014
▁३००	-6015
▁बेङ्	-6016
▁चरणको	-6017
स्थापित	-6018
▁उपनिवेश	-6019
▁एम्ब्रो	-6020
▁लेखिएका	-6021
▁भाषाहरूमा	-6022
▁मानिसहरूलाई	-6023
्ल	-6024
▁अं	-6025
म्पो	-6026
▁बेलु	-6027
▁मीटर	-6028
न्द्रा	-6029
▁इटाली	-6030
▁जित्ने	-6031
▁वन्यजन्तु	-6032
▁कार्यान्वयन	-6033
ँची	-6034
▁ओखल	-6035
▁हाँ	-6036
▁जाडो	-6037
▁टिभी	-6038
▁२०७८	-6039
▁छोडेर	-6040
▁ठाकुर	-6041
▁कृषिमा	-6042
▁कर्नाटक	-6043
▁पार्वती	-6044
▁सम्बोधन	-6045
▁भनिन्थ्यो	-6046
▁संविधानको	-6047
जका	-6048
िकृत	-6049
्रेट	-6050
▁भिट	-6051
▁१५०	-6052
▁गुठी	-6053
▁बनाउ	-6054
▁सजिलो	-6055
▁जान्छन्	-6056
▁युट्युब	-6057
▁वर्षपछि	-6058
▁मानिन्छन्	-6059
▁इं	-6060
▁ही	-6061
इएका	-6062
▁गायन	-6063
▁दाबी	-6064
▁क्षत्र	-6065
▁खेलेकी	-6066
▁शासकीय	-6067
▁लगाइएको	-6068
▁शक्तिको	-6069
९०	-6070
न्नु	-6071
प्पा	-6072
शीको	-6073
▁पतन	-6074
▁पास	-6075
▁बोल	-6076
▁भलि	-6077
कुण्ड	-6078
लगायत	-6079
▁सोलु	-6080
न्देही	-6081
▁चम्चा	-6082
▁गीतलाई	-6083
▁युवराज	-6084
▁टिप्पणी	-6085
▁राज्यले	-6086
▁समानुपातिक	-6087
सुस	-6088
▁मग	-6089
ङ्ला	-6090
्रमा	-6091
▁आबद्ध	-6092
▁दुर्ग	-6093
▁पाँडे	-6094
▁पुग्छ	-6095
▁विद्य	-6096
▁खुल्ला	-6097
▁खेलेको	-6098
▁परिकार	-6099
▁स्वभाव	-6100
▁इन्टरने	-6101
▁संक्रमण	-6102
▁केन्द्रहरू	-6103
▁इन्डोनेसिया	-6104
ईन	-6105
जत	-6106
निङ	-6107
िकको	-6108
▁गिर	-6109
▁तेज	-6110
▁छाला	-6111
▁बसेर	-6112
▁खड्का	-6113
▁छेउमा	-6114
▁पाठ्य	-6115
▁प्याले	-6116
▁सप्तरी	-6117
▁आपूर्ति	-6118
▁इतिहासको	-6119
▁अहिलेसम्म	-6120
७४	-6121
शनल	-6122
▁अले	-6123
▁केर	-6124
▁नाश	-6125
▁रोज	-6126
ानन्द	-6127
ेसम्म	-6128
स्थापन	-6129
▁मण्डल	-6130
▁उहाँको	-6131
▁विपरीत	-6132
▁संग्रह	-6133
▁सेनाका	-6134
▁प्रणालीमा	-6135
ंगी	-6136
स्टि	-6137
▁रही	-6138
▁एकाइ	-6139
▁भइन्	-6140
परिवार	-6141
लिङ्गी	-6142
▁हरिया	-6143
▁आम्बेड	-6144
▁पद्धति	-6145
▁पुस्तकहरू	-6146
गीत	-6147
▁औषध	-6148
▁गल्	-6149
▁बला	-6150
▁शार	-6151
▁दक्ष	-6152
▁दिदी	-6153
▁शल्य	-6154
▁उत्सव	-6155
▁उपप्र	-6156
▁जोडेर	-6157
▁बनाउँछ	-6158
▁रङ्गशाला	-6159
▁बङ्गलादेशमा	-6160
▁राजनीतिज्ञहरू	-6161
यद	-6162
कलि	-6163
ोषण	-6164
▁मस	-6165
▁एनि	-6166
▁मरि	-6167
▁रोब	-6168
▁विन	-6169
दिएका	-6170
▁आउनु	-6171
▁रोमा	-6172
▁हमला	-6173
▁२०४६	-6174
▁काममा	-6175
▁धनुषा	-6176
▁प्रिय	-6177
▁विघटन	-6178
▁सुझाव	-6179
▁अनुहार	-6180
▁जनाएको	-6181
▁सुनसरी	-6182
▁सहयोगमा	-6183
▁व्यवस्थित	-6184
▁सामग्रीहरू	-6185
माई	-6186
धुरा	-6187
▁गित	-6188
▁अश्व	-6189
▁जेठा	-6190
▁पढ्न	-6191
क्षकको	-6192
वर्द्ध	-6193
▁आफूले	-6194
▁जेम्स	-6195
▁दार्श	-6196
▁श्लोक	-6197
▁सबैको	-6198
▁क्लबमा	-6199
▁जुम्ला	-6200
▁तीनवटा	-6201
▁पर्छन्	-6202
▁विरुवा	-6203
▁इत्यादि	-6204
▁दरबारमा	-6205
▁उदाहरणका	-6206
▁संख्यामा	-6207
३४	-6208
ंका	-6209
खुवा	-6210
▁एकद	-6211
▁निरा	-6212
▁नेदर	-6213
▁सीता	-6214
▁भाषालाई	-6215
▁राम्ररी	-6216
▁उपाध्याय	-6217
▁प्राध्या	-6218
▁रूपान्तरण	-6219
▁कांग्रेसका	-6220
देख	-6221
राले	-6222
च्छेद	-6223
▁अधीन	-6224
▁पुरै	-6225
▁समर्	-6226
▁सुनु	-6227
▁टर्की	-6228
▁आन्ध्र	-6229
▁धुरीमा	-6230
▁बसोवास	-6231
▁हराउँदै	-6232
▁कम्पनीहरू	-6233
▁बज्राचार्य	-6234
▁री	-6235
लोचक	-6236
ेदार	-6237
▁आयर	-6238
▁वान	-6239
▁डाटा	-6240
▁रियल	-6241
▁रोयल	-6242
▁सहरी	-6243
▁सिल्	-6244
▁प्रकोप	-6245
▁नेपाललाई	-6246
धै	-6247
पल्ट	-6248
यरको	-6249
वर्ग	-6250
▁टोल	-6251
▁पति	-6252
ग्वेद	-6253
वाहिक	-6254
▁दावी	-6255
▁काण्ड	-6256
▁स्कुल	-6257
▁सेनामा	-6258
▁कर्तव्य	-6259
▁त्यस्ता	-6260
▁दार्शनिक	-6261
▁दुर्घटना	-6262
चौर	-6263
ख्यक	-6264
नाडु	-6265
▁अम्	-6266
▁निज	-6267
िकाको	-6268
▁अभिम	-6269
▁बिचमा	-6270
▁भलिबल	-6271
▁शान्त	-6272
▁बोकेको	-6273
▁विविधता	-6274
▁संसारमा	-6275
▁युनिभर्स	-6276
च्	-6277
दरा	-6278
▁लाम	-6279
▁इसाई	-6280
▁नायक	-6281
▁तसर्थ	-6282
▁मौसमी	-6283
▁कुरामा	-6284
▁खोलाको	-6285
▁बनाउनु	-6286
▁विधामा	-6287
▁प्रेरित	-6288
▁समर्पित	-6289
जनक	-6290
दले	-6291
जीवन	-6292
ल्ले	-6293
▁मृत	-6294
त्मिक	-6295
▁पारी	-6296
▁बीमा	-6297
▁ब्रो	-6298
▁मेवा	-6299
▁राशि	-6300
▁कुण्ड	-6301
▁रौतहट	-6302
▁सङ्कट	-6303
▁दुख्ने	-6304
▁बिन्दु	-6305
▁ल्याउन	-6306
▁स्वस्थ	-6307
▁मोहम्मद	-6308
▁साहित्यका	-6309
▁मार्क्सवादी	-6310
२६	-6311
४६	-6312
ह्न	-6313
▁कथ	-6314
िनमा	-6315
▁इस्ट	-6316
▁छलफल	-6317
▁तोरी	-6318
▁थ्री	-6319
▁यिनै	-6320
▁२०६५	-6321
▁ठकुरी	-6322
▁याएको	-6323
▁राजदू	-6324
▁दिशामा	-6325
▁सिंहको	-6326
▁रासायनिक	-6327
▁स्थानान्तरण	-6328
३३	-6329
थुम	-6330
सनल	-6331
ामक	-6332
दाता	-6333
▁एन्	-6334
▁बनि	-6335
न्सले	-6336
ेक्षण	-6337
▁थारू	-6338
▁पेरिस	-6339
▁सम्हा	-6340
▁वर्गमा	-6341
▁स्थानको	-6342
▁अधिकारको	-6343
रन	-6344
दिएको	-6345
▁कहाँ	-6346
▁जहाज	-6347
▁बताए	-6348
▁बाँड	-6349
क्ष्मी	-6350
▁आध्या	-6351
▁दायाँ	-6352
▁म्याक	-6353
▁कान्छा	-6354
▁ल्याउने	-6355
▁समायोजन	-6356
▁अष्ट्रेल	-6357
▁बिस्तारै	-6358
▁युनेस्कोले	-6359
२९	-6360
४३	-6361
▁ै	-6362
चोक	-6363
क्वा	-6364
फेयर	-6365
▁माउ	-6366
▁इन्च	-6367
▁केटा	-6368
▁संगै	-6369
▁टिमले	-6370
▁नतिजा	-6371
▁शासित	-6372
विरुद्ध	-6373
▁राजस्व	-6374
▁कारोबार	-6375
▁मृत्युको	-6376
रथ	-6377
डेन	-6378
धाम	-6379
रण्य	-6380
राहा	-6381
▁जुल	-6382
▁इण्ड	-6383
▁कपाल	-6384
▁गाडी	-6385
▁गिरि	-6386
▁दाना	-6387
▁भारी	-6388
▁माला	-6389
▁कोलका	-6390
▁बग्ने	-6391
कहरूलाई	-6392
▁पंक्षी	-6393
▁मैथिली	-6394
▁राजीनामा	-6395
▁विराटनगर	-6396
फु	-6397
इलो	-6398
सेल	-6399
▁धो	-6400
▁रच	-6401
स्मा	-6402
▁अहम	-6403
▁वाह	-6404
त्तरी	-6405
फोर्ड	-6406
ष्ठिर	-6407
▁कठिन	-6408
▁स्पो	-6409
▁१९६२	-6410
प्रकाश	-6411
▁पारित	-6412
▁पुच्छ	-6413
▁प्रशा	-6414
▁चुनौती	-6415
▁गरिसकेका	-6416
शय	-6417
७६	-6418
मका	-6419
▁बझा	-6420
▁गौरव	-6421
▁बाढी	-6422
▁युधि	-6423
▁महसुस	-6424
▁शिवको	-6425
▁त्यसका	-6426
▁पण्डित	-6427
▁अपेक्षा	-6428
▁उद्घाटन	-6429
▁भूभागमा	-6430
▁आविष्कार	-6431
▁फ्रान्सको	-6432
तरण	-6433
भिड	-6434
िनै	-6435
▁गै	-6436
क्ती	-6437
ङ्कर	-6438
लाही	-6439
▁भर्	-6440
▁गणित	-6441
▁टीका	-6442
▁द्रो	-6443
▁श्रृ	-6444
▁भाद्र	-6445
▁बस्नेत	-6446
▁अञ्चलमा	-6447
▁सरकारमा	-6448
▁क्रान्तिको	-6449
▁मध्यपश्चिमाञ्चल	-6450
▁एट	-6451
जाबी	-6452
▁बाला	-6453
▁राहु	-6454
▁आकर्षण	-6455
▁भिक्षु	-6456
▁कपिलवस्तु	-6457
ढाई	-6458
हाट	-6459
▁उस	-6460
▁अना	-6461
▁नया	-6462
▁इण्ट	-6463
▁उचाई	-6464
▁१९७६	-6465
विक्रम	-6466
▁दर्जन	-6467
▁देउवा	-6468
▁निवास	-6469
▁सुनेर	-6470
▁आयोगको	-6471
▁कोरोना	-6472
▁पक्षको	-6473
▁निमित्त	-6474
▁सर्वोत्	-6475
▁भागहरूमा	-6476
▁सहभागीता	-6477
▁पश्चिमबाट	-6478
▁पत	-6479
▁लौ	-6480
ुरको	-6481
▁काय	-6482
▁टोक	-6483
▁बहि	-6484
▁भएन	-6485
▁१९७७	-6486
▁रसायन	-6487
▁मानदेव	-6488
▁जर्मनेली	-6489
▁नेपालीमा	-6490
▁मातृभाषा	-6491
▁उत्पादनको	-6492
ंट	-6493
भ्र	-6494
्रेड	-6495
▁पुस	-6496
▁ब्ल	-6497
▁हाट	-6498
▁माथी	-6499
▁२०६९	-6500
▁ज्वरो	-6501
▁सबैले	-6502
▁मैत्री	-6503
▁रोल्पा	-6504
▁लाग्यो	-6505
▁वर्षका	-6506
▁दायित्व	-6507
▁म्युजिक	-6508
▁सूर्यको	-6509
▁इमिरेट्स	-6510
▁तमिलनाडु	-6511
▁नेतृत्वको	-6512
▁युधिष्ठिर	-6513
७९	-6514
ंदा	-6515
कता	-6516
ोरी	-6517
▁कुर	-6518
ाउँदा	-6519
▁अखिल	-6520
▁ब्रि	-6521
▁भेला	-6522
▁होला	-6523
▁छात्र	-6524
▁सुन्न	-6525
सङ्ग्रह	-6526
▁भुक्तानी	-6527
▁गर्नुभएको	-6528
▁प्रशासकीय	-6529
कवि	-6530
बुल	-6531
▁६९	-6532
▁गजल	-6533
▁लखन	-6534
▁अब्द	-6535
▁उनकै	-6536
▁काल्	-6537
▁क्यु	-6538
▁गंगा	-6539
▁घोषण	-6540
▁शिवा	-6541
्याउने	-6542
▁गान्ध	-6543
▁दिइयो	-6544
ष्टाचार	-6545
▁अङ्गुल	-6546
▁जसकारण	-6547
▁तत्त्व	-6548
▁मल्लको	-6549
▁मिथिला	-6550
▁सल्यान	-6551
▁स्विडे	-6552
▁सुन्दरी	-6553
▁प्रतिद्व	-6554
▁व्यवसायिक	-6555
▁सङ्ख्यामा	-6556
ंज	-6557
गाह	-6558
श्म	-6559
▁कल्	-6560
▁नेप	-6561
▁देशा	-6562
▁द्रु	-6563
▁रुसी	-6564
र्सिलो	-6565
लागिरी	-6566
▁द्वार	-6567
▁सट्टा	-6568
▁आयोगले	-6569
▁कश्मीर	-6570
▁लम्बाइ	-6571
▁यिनीहरू	-6572
▁हुनुपर्ने	-6573
भ्स	-6574
ियार	-6575
▁पान	-6576
▁मेघ	-6577
▁यता	-6578
▁रमण	-6579
कालिन	-6580
▁खाली	-6581
▁आयोजक	-6582
▁खानले	-6583
▁ग्यास	-6584
▁नभएका	-6585
▁बाहुन	-6586
▁भेगमा	-6587
▁सार्वभौम	-6588
▁अस्पतालमा	-6589
▁फिल्मफेयर	-6590
▁विश्वकपको	-6591
▁आध्यात्मिक	-6592
▁कहिलेकाहीँ	-6593
४९	-6594
▁पह	-6595
▁डेब	-6596
▁फ्र	-6597
▁रघु	-6598
▁होम	-6599
पन्थी	-6600
▁एन्ज	-6601
▁देहा	-6602
▁मनमा	-6603
▁मनाङ	-6604
▁रावण	-6605
▁वंशा	-6606
▁स्टि	-6607
▁किन्ड	-6608
▁कुँवर	-6609
▁टिमका	-6610
▁शाक्य	-6611
▁ऋग्वेद	-6612
▁जातिका	-6613
▁थापाको	-6614
▁परिचाल	-6615
▁दिन्छन्	-6616
▁अनुमानित	-6617
▁नरेन्द्र	-6618
▁सकारात्मक	-6619
▁कार्यालयमा	-6620
सिस	-6621
▁शू	-6622
वाही	-6623
▁खबर	-6624
▁ट्व	-6625
▁निग	-6626
▁नोट	-6627
▁पहल	-6628
▁यहि	-6629
नालाई	-6630
शुराम	-6631
▁उष्ण	-6632
▁गन्त	-6633
▁चामल	-6634
▁मङ्स	-6635
▁पिउने	-6636
▁यसैले	-6637
▁श्रोत	-6638
▁गोविन्द	-6639
▁लक्ष्मण	-6640
्द	-6641
क्व	-6642
ारो	-6643
क्नु	-6644
जरको	-6645
जीवी	-6646
नीले	-6647
▁अन्	-6648
▁मृग	-6649
नीतिक	-6650
ब्लिक	-6651
▁गन्ध	-6652
▁फेरी	-6653
▁फैला	-6654
▁विगत	-6655
▁शिल्	-6656
▁तिहार	-6657
▁धादिङ	-6658
▁वंशको	-6659
▁किराँत	-6660
▁नगर्ने	-6661
▁नसक्ने	-6662
▁मनाइने	-6663
▁सन्तुल	-6664
▁बार्सिलो	-6665
▁क्रियाकलाप	-6666
वायु	-6667
ीहरू	-6668
▁आम्	-6669
▁वाइ	-6670
▁आठौँ	-6671
▁२०२३	-6672
▁ध्रुव	-6673
▁रुद्र	-6674
▁किनारा	-6675
▁श्रोतको	-6676
▁साविकका	-6677
▁साविकको	-6678
▁पूर्वाधार	-6679
ंव	-6680
वक	-6681
▁षड	-6682
न्सि	-6683
▁किम	-6684
▁भोक	-6685
▁रवि	-6686
▁खराब	-6687
▁ख्या	-6688
▁सिपा	-6689
▁१९५६	-6690
▁इजराय	-6691
▁ज्याक	-6692
▁यूरोप	-6693
▁विष्ट	-6694
▁पत्रमा	-6695
▁सदस्यता	-6696
▁परिक्रमा	-6697
६६	-6698
ितो	-6699
▁उम	-6700
नायक	-6701
ाउमा	-6702
▁छान	-6703
▁बिष	-6704
वानको	-6705
▁अष्ट	-6706
▁चिनी	-6707
▁जवाफ	-6708
▁ज्वा	-6709
▁१९७८	-6710
▁एकदमै	-6711
▁कामको	-6712
▁लेनिन	-6713
▁चट्टान	-6714
▁ज्यादै	-6715
▁मङ्सिर	-6716
▁मुम्बई	-6717
▁लिइएको	-6718
▁उपलब्धि	-6719
▁जापानको	-6720
▁निर्धारित	-6721
▁विचारधारा	-6722
ंख	-6723
२१	-6724
किङ	-6725
जीत	-6726
त्क	-6727
▁शाम	-6728
▁काशी	-6729
▁खनाल	-6730
▁तुरु	-6731
▁मापन	-6732
▁उनीले	-6733
▁बन्दर	-6734
▁रुकुम	-6735
▁डिजिटल	-6736
▁सभ्यता	-6737
▁शब्दहरू	-6738
▁कार्यहरू	-6739
▁सर्वेक्षण	-6740
गण	-6741
षे	-6742
३१	-6743
रोग	-6744
दिने	-6745
निया	-6746
ारेज	-6747
▁पिट	-6748
▁वरपर	-6749
▁कथामा	-6750
▁पोर्ट	-6751
▁प्रहर	-6752
नेन्द्र	-6753
▁मानवीय	-6754
▁हुन्छन	-6755
▁प्रधानमन्त्रीको	-6756
ंकी	-6757
ूको	-6758
पनिक	-6759
सुकै	-6760
्वान	-6761
▁राव	-6762
▁स्कट	-6763
▁बनायो	-6764
▁सिस्ट	-6765
▁स्मरण	-6766
▁इजरायल	-6767
▁घिमिरे	-6768
▁तन्त्र	-6769
▁लगत्तै	-6770
▁तुरुन्त	-6771
▁विश्वविद्यालयका	-6772
ट्य	-6773
मेट	-6774
याम	-6775
▁अच	-6776
▁८५	-6777
कल्प	-6778
वरको	-6779
▁ताम	-6780
▁कुरु	-6781
▁१९५४	-6782
▁१९६६	-6783
क्षत्र	-6784
▁उपग्रह	-6785
▁कोलम्ब	-6786
▁खासगरी	-6787
▁भक्तजन	-6788
▁भारदार	-6789
▁सर्लाही	-6790
▁प्राप्ति	-6791
▁संस्कृतिको	-6792
▁अफगानिस्तान	-6793
▁खल	-6794
माला	-6795
वाली	-6796
▁कदम	-6797
▁बहर	-6798
▁हप्	-6799
▁खड्ग	-6800
▁गर्ल	-6801
▁बैंक	-6802
▁भोलि	-6803
▁राना	-6804
▁वेदा	-6805
▁१९४८	-6806
▁२०४७	-6807
▁बुझ्न	-6808
▁द्रव्य	-6809
▁एन्ड्रो	-6810
▁प्रोत्सा	-6811
▁किन्ड्रेक	-6812
▁प्रभावशाली	-6813
▁प्रमाणपत्र	-6814
▁इन्जिनियरिङ	-6815
▁डब्ल्यूडब्ल्यू	-6816
८९	-6817
चाई	-6818
डिङ	-6819
▁वो	-6820
ालमा	-6821
▁अयो	-6822
▁डाय	-6823
▁साफ	-6824
ङ्गले	-6825
▁दलले	-6826
▁माधव	-6827
▁हाउस	-6828
▁इण्टर	-6829
▁किलोम	-6830
▁कोङ्क	-6831
▁प्रोट	-6832
▁लिएकी	-6833
▁सभापति	-6834
▁स्वरुप	-6835
▁न्युजिल	-6836
▁ल्याटिन	-6837
▁विश्वभर	-6838
▁सञ्चालक	-6839
▁सार्लेट	-6840
▁स्पोर्ट	-6841
▁जिल्लालाई	-6842
▁भ्रष्टाचार	-6843
▁जिल्लाहरूमा	-6844
ढे	-6845
बिर	-6846
▁पल	-6847
▁ड्र	-6848
▁धाम	-6849
▁नन्द	-6850
▁जीवनी	-6851
▁विकेट	-6852
▁समस्त	-6853
▁अर्थमा	-6854
▁भिक्टो	-6855
▁वर्गको	-6856
▁आइरहेको	-6857
▁एसियाको	-6858
▁नियुक्ति	-6859
▁परियोजनाको	-6860
▁प्रतिष्ठित	-6861
३५	-6862
७१	-6863
गाँ	-6864
रात	-6865
लोड	-6866
▁गड	-6867
जन्य	-6868
पादन	-6869
दैनन्	-6870
▁उत्र	-6871
▁तातो	-6872
▁साँझ	-6873
▁स्टे	-6874
▁आदिमा	-6875
▁दशकको	-6876
▁पर्सा	-6877
▁युगमा	-6878
▁आइसिसी	-6879
▁तिम्रो	-6880
▁मानिसले	-6881
▁मिश्रित	-6882
▁म्याक्स	-6883
▁स्थितिमा	-6884
▁केन्द्रमा	-6885
▁महिलाहरूको	-6886
शे	-6887
एमा	-6888
ह्रो	-6889
▁राग	-6890
न्वेष	-6891
▁पैदल	-6892
▁१९६९	-6893
▁२०५३	-6894
▁मराठी	-6895
▁रहँदा	-6896
▁हालेर	-6897
▁उपयोगी	-6898
▁पर्खाल	-6899
▁राजकीय	-6900
▁शब्दले	-6901
▁स्तरको	-6902
▁हामीले	-6903
▁गाउँहरू	-6904
▁विरूद्ध	-6905
▁तिनीहरूले	-6906
▁यातायातमा	-6907
खमा	-6908
द्वा	-6909
प्ने	-6910
▁खरी	-6911
▁अफिस	-6912
▁कतार	-6913
▁रोलि	-6914
▁अवरोध	-6915
▁परेकी	-6916
▁आफुलाई	-6917
▁क्याना	-6918
▁पुर्या	-6919
▁बिरुद्ध	-6920
▁ब्ल्याक	-6921
▁काल्पनिक	-6922
▁अन्नपूर्ण	-6923
▁पाकिस्तानका	-6924
ंगे	-6925
प्च	-6926
▁बड	-6927
ङ्गल	-6928
सिना	-6929
▁फाँ	-6930
▁मिन	-6931
▁बेल्	-6932
▁सेमी	-6933
▁१९४९	-6934
▁१९६७	-6935
▁२०७६	-6936
▁त्यहि	-6937
▁योर्क	-6938
▁किलोमी	-6939
▁निर्णा	-6940
▁फिलिपि	-6941
▁महादेश	-6942
▁लिम्बू	-6943
▁विषयको	-6944
▁सहितको	-6945
▁महामारी	-6946
▁पृथ्वीमा	-6947
▁बाल्यकाल	-6948
ेग	-6949
८५	-6950
▁गज	-6951
▁७४४	-6952
न्तला	-6953
परेको	-6954
▁गोलर	-6955
▁जाती	-6956
▁धामी	-6957
▁भद्र	-6958
▁१९४५	-6959
▁जन्मा	-6960
▁सबैलाई	-6961
▁सृष्टि	-6962
▁प्रेरणा	-6963
▁शुरुवात	-6964
▁सूक्ष्म	-6965
▁क्षमताको	-6966
▁राजस्थान	-6967
▁ताप्लेजुङ	-6968
▁वाणिज्यमा	-6969
▁अधिराज्यको	-6970
२४	-6971
चको	-6972
पान	-6973
▁बिन	-6974
नाथको	-6975
▁दशरथ	-6976
▁रहनु	-6977
▁स्पा	-6978
ङ्क्ति	-6979
▁दाहाल	-6980
▁पुर्ण	-6981
▁जितेकी	-6982
▁त्यसले	-6983
▁पेनाल्ट	-6984
▁क्रिकेटमा	-6985
ूष	-6986
काइ	-6987
▁वु	-6988
केकी	-6989
▁खिच	-6990
▁मिड	-6991
ख्यान	-6992
वाहित	-6993
▁बराल	-6994
▁बालक	-6995
▁लेखे	-6996
▁सपना	-6997
▁२०६२	-6998
▁खोटाङ	-6999
▁गतिमा	-7000
▁वैष्ण	-7001
▁शिष्य	-7002
▁जलवायु	-7003
▁कविताको	-7004
▁गठबन्धन	-7005
▁समुदायले	-7006
▁प्रविधिको	-7007
▁अभिव्यक्ति	-7008
▁आयरल्यान्ड	-7009
▁अर्थव्यवस्था	-7010
हत	-7011
३९	-7012
ँचो	-7013
▁बू	-7014
▁सस	-7015
लोजी	-7016
वंशी	-7017
▁ईश्व	-7018
▁बाछि	-7019
▁२०५४	-7020
क्सिको	-7021
▁आरोहण	-7022
▁जेष्ठ	-7023
▁दिएकी	-7024
▁वंशका	-7025
▁उपाधिका	-7026
▁सूचीकृत	-7027
▁चलचित्रका	-7028
ों	-7029
▁यश	-7030
ङ्का	-7031
▁उदार	-7032
▁चार्	-7033
▁थारु	-7034
▁रोक्न	-7035
▁सौर्य	-7036
▁गभर्नर	-7037
▁गर्दैन	-7038
▁दुरीमा	-7039
▁उपविभाग	-7040
▁खेलहरूमा	-7041
▁निर्माणको	-7042
▁प्रदर्शित	-7043
▁प्रवृत्ति	-7044
▁प्रजातिहरू	-7045
िरी	-7046
ेरे	-7047
जाको	-7048
सेना	-7049
▁दुर	-7050
▁हिट	-7051
▁कपूर	-7052
▁फ्लो	-7053
▁सानै	-7054
देवीको	-7055
प्रकार	-7056
▁अपभ्र	-7057
▁अस्था	-7058
▁तालको	-7059
▁प्रभा	-7060
▁दुल्लु	-7061
▁दूरीमा	-7062
▁भारतले	-7063
▁रमाइलो	-7064
▁विलियम	-7065
▁परशुराम	-7066
▁जंगबहादुर	-7067
▁काठमाडौंको	-7068
खत	-7069
▁अंक	-7070
▁इजा	-7071
▁उर्	-7072
▁फौज	-7073
▁मरु	-7074
▁मैन	-7075
▁हैन	-7076
▁गोदा	-7077
▁छत्र	-7078
▁डाउन	-7079
▁निभा	-7080
▁नुहा	-7081
▁पैदा	-7082
▁शंकर	-7083
▁सिरि	-7084
पत्रमा	-7085
▁यसपछि	-7086
न्तर्गत	-7087
▁गराएको	-7088
▁नदीहरू	-7089
▁पुर्खा	-7090
▁विन्डो	-7091
▁सुरुवाती	-7092
एच	-7093
ठित	-7094
दत्त	-7095
ामिन	-7096
▁नगद	-7097
▁नवा	-7098
▁झण्ड	-7099
▁चिहान	-7100
▁बायाँ	-7101
▁अन्वेष	-7102
▁आकर्षक	-7103
▁मात्रमा	-7104
▁समयदेखि	-7105
▁समितिले	-7106
नर	-7107
७७	-7108
णमा	-7109
▁ओर	-7110
म्बो	-7111
्सको	-7112
▁अजि	-7113
▁एमा	-7114
▁छैट	-7115
▁भजन	-7116
▁जम्म	-7117
▁जसरी	-7118
▁जोडि	-7119
▁सधैं	-7120
▁१९६४	-7121
▁दस्ता	-7122
▁पालामा	-7123
▁बिजुली	-7124
▁मिसाएर	-7125
▁समानता	-7126
▁राजशाही	-7127
▁सेनालाई	-7128
▁गाविसहरू	-7129
▁सङ्गठनको	-7130
▁काठमाण्डौ	-7131
▁वर्तमानमा	-7132
▁हस्तक्षेप	-7133
▁उत्तरपूर्व	-7134
▁प्रारम्भमा	-7135
केट	-7136
▁नप	-7137
ण्डर	-7138
स्ला	-7139
▁सरो	-7140
▁बैठक	-7141
▁सचेत	-7142
▁बस्तु	-7143
▁दुर्लभ	-7144
▁संशोधन	-7145
▁सोलुखु	-7146
▁मुख्यतः	-7147
▁पुस्तकमा	-7148
▁वर्गकिलो	-7149
भल	-7150
६३	-7151
फोट	-7152
तारा	-7153
▁पछी	-7154
▁रवी	-7155
त्विक	-7156
▁स्टा	-7157
▁२०५६	-7158
▁नजीकै	-7159
प्ताहिक	-7160
▁अन्तरिम	-7161
▁कार्यको	-7162
▁बनाइन्छ	-7163
▁बस्न्या	-7164
▁मेक्सिको	-7165
▁रणबहादुर	-7166
▁लोकतन्त्र	-7167
▁संस्कृतमा	-7168
▁प्रयोगकर्ताहरू	-7169
जिङ	-7170
रिस	-7171
ेतु	-7172
घरमा	-7173
▁जनआ	-7174
▁दमन	-7175
▁धरान	-7176
▁चाहिँ	-7177
▁निकाल	-7178
▁रहेकी	-7179
लैङ्गिक	-7180
▁कल्पना	-7181
▁जनवादी	-7182
▁निवासी	-7183
▁शैलीमा	-7184
▁संसदको	-7185
▁सिंहले	-7186
▁हजारौं	-7187
हुन्थ्यो	-7188
▁कुराहरू	-7189
▁रेसलमेनिया	-7190
यू	-7191
िटि	-7192
▁मं	-7193
इन्स	-7194
क्कै	-7195
पञ्च	-7196
र्सा	-7197
▁दाम	-7198
▁दुब	-7199
▁यसो	-7200
िनीको	-7201
्यारा	-7202
▁खुसी	-7203
▁गौरी	-7204
▁चौकी	-7205
▁पीडा	-7206
▁रचित	-7207
▁आपसमा	-7208
▁पर्यो	-7209
▁यिनका	-7210
▁युवती	-7211
▁व्यास	-7212
▁अनुकूल	-7213
▁पर्दैन	-7214
▁फाउन्ड	-7215
▁लिपिमा	-7216
▁जानिन्छ	-7217
▁श्रद्धा	-7218
▁इण्टरनेट	-7219
▁समुदायका	-7220
▁एन्ड्रोइड	-7221
▁हस्तान्तरण	-7222
चौ	-7223
४२	-7224
गमन	-7225
िसन	-7226
ुली	-7227
▁उद	-7228
▁धव	-7229
ुनको	-7230
ुरुप	-7231
्यमा	-7232
▁दिइ	-7233
▁हाई	-7234
▁ब्लग	-7235
▁लुगा	-7236
▁लडाइँ	-7237
▁विक्र	-7238
▁श्रेय	-7239
▁अध्यापन	-7240
▁अयोध्या	-7241
▁मलेसिया	-7242
▁विमानस्थ	-7243
▁साप्ताहिक	-7244
३२	-7245
धित	-7246
सिए	-7247
हिर	-7248
ोले	-7249
▁डर	-7250
म्या	-7251
▁पिस	-7252
▁फरा	-7253
▁लुट	-7254
वर्मा	-7255
▁इरान	-7256
▁फ्ले	-7257
▁राधा	-7258
▁वंशज	-7259
▁हर्ष	-7260
▁१९६८	-7261
▁अध्यय	-7262
▁नमुना	-7263
▁फैसला	-7264
▁सिमित	-7265
▁घरधुरी	-7266
▁पुराता	-7267
▁बढाउने	-7268
▁माल्दि	-7269
▁मुस्ता	-7270
▁रूपबाट	-7271
▁स्वच्छ	-7272
▁कीर्तिमान	-7273
▁सल्लाहकार	-7274
▁राष्ट्रसंघ	-7275
▁वर्गकिलोमिटर	-7276
▁स्वतन्त्रताको	-7277
▁५८	-7278
▁बेर	-7279
देवको	-7280
▁अभिय	-7281
▁उपभो	-7282
▁द्वि	-7283
▁मौजा	-7284
▁वेल्	-7285
चेस्टर	-7286
▁पुरूष	-7287
▁स्वाद	-7288
▁गाह्रो	-7289
▁दूरदर्शन	-7290
▁प्रचलनमा	-7291
▁वेबसाइटमा	-7292
त्प	-7293
बज्र	-7294
म्की	-7295
▁गलत	-7296
▁दुन	-7297
▁पखे	-7298
▁लुक	-7299
▁स्र	-7300
दरबार	-7301
सूत्र	-7302
▁होटल	-7303
र्तिको	-7304
स्टाइन	-7305
▁अनुमो	-7306
▁मोडेल	-7307
▁मुनिको	-7308
▁राजालाई	-7309
▁हुनसक्छ	-7310
▁श्रेणीमा	-7311
▁निर्माणमा	-7312
भरी	-7313
▁न्	-7314
टाले	-7315
र्दै	-7316
स्टन	-7317
▁अनौ	-7318
▁तोड	-7319
▁सती	-7320
त्तिक	-7321
▁लङ्ग	-7322
▁स्मा	-7323
▁अर्घा	-7324
▁गिरफ्	-7325
▁पारेर	-7326
▁बनेकी	-7327
▁युक्त	-7328
▁वृक्ष	-7329
▁अग्रणी	-7330
▁आउँछन्	-7331
▁अदालतको	-7332
▁सिक्किमको	-7333
▁सुनिश्चित	-7334
▁कांग्रेसको	-7335
▁नब	-7336
▁कूट	-7337
▁कोड	-7338
▁गाड	-7339
▁बेस	-7340
▁रिप	-7341
योग्य	-7342
▁असुर	-7343
▁गोरख	-7344
▁जंगल	-7345
▁तारि	-7346
▁मानक	-7347
▁सेमि	-7348
▁१९५२	-7349
न्तरमा	-7350
▁इजाजत	-7351
▁उपनाम	-7352
▁गीतले	-7353
▁कथाहरू	-7354
▁बाङ्ला	-7355
▁घेरिएको	-7356
▁सेकेन्ड	-7357
वैज्ञानिक	-7358
▁त्यहाँबाट	-7359
▁सोलुखुम्बु	-7360
अौँ	-7361
▁पन	-7362
बाही	-7363
रीले	-7364
▁आउट	-7365
▁उमा	-7366
▁चिर	-7367
▁बरफ	-7368
▁कोदो	-7369
▁गराइ	-7370
▁टेली	-7371
▁तनाव	-7372
▁बनार	-7373
▁मेरा	-7374
▁विषा	-7375
▁चुम्ब	-7376
▁भाषिक	-7377
▁हरूको	-7378
▁किर्ति	-7379
▁बाक्लो	-7380
▁समारोह	-7381
▁समूहका	-7382
▁अदालतले	-7383
▁गन्तव्य	-7384
▁विपक्षी	-7385
▁प्रवर्द्ध	-7386
▁राम्रोसँग	-7387
.,	-7388
छे	-7389
मू	-7390
लय	-7391
ीम	-7392
भिक	-7393
वको	-7394
▁लहर	-7395
▁ओसार	-7396
▁कुशल	-7397
▁नर्व	-7398
▁मोती	-7399
▁डेनमा	-7400
▁गर्नमा	-7401
▁बजारको	-7402
▁मिटरको	-7403
▁इन्दिरा	-7404
▁भिन्नता	-7405
▁लक्षणहरू	-7406
▁संरक्षित	-7407
▁लगानीकर्ता	-7408
अर	-7409
गाई	-7410
गुण	-7411
▁एप	-7412
▁नक	-7413
▁७९	-7414
करको	-7415
▁छिन	-7416
▁ठोस	-7417
▁पाट	-7418
▁फिन	-7419
▁सना	-7420
पुर्ण	-7421
▁तहमा	-7422
▁बसाई	-7423
▁१९६१	-7424
▁चिह्न	-7425
▁ध्वनि	-7426
▁सरदार	-7427
▁सांसद	-7428
▁कालिका	-7429
▁धनबज्र	-7430
▁भरतपुर	-7431
▁संयोजन	-7432
▁सङ्घका	-7433
▁भियतनाम	-7434
▁यसबाहेक	-7435
▁शब्दकोश	-7436
▁सम्झौतामा	-7437
▁पुरस्कारको	-7438
दह	-7439
थली	-7440
भिल	-7441
विर	-7442
षित	-7443
िएम	-7444
िलर	-7445
▁गू	-7446
ख्खा	-7447
गुरु	-7448
्वाल	-7449
▁चेक	-7450
▁तान	-7451
▁पाद	-7452
▁पौष	-7453
▁रिङ	-7454
▁सद्	-7455
▁हेट	-7456
▁आजको	-7457
▁ट्वा	-7458
▁२०५९	-7459
▁मस्ति	-7460
▁सोह्र	-7461
▁स्क्र	-7462
▁उचाईमा	-7463
▁सिराहा	-7464
▁हाम्रा	-7465
▁अस्थायी	-7466
▁कलात्मक	-7467
▁भारतबाट	-7468
▁आम्बेडकर	-7469
▁महोत्तरी	-7470
▁नेदरल्यान्ड	-7471
ठान	-7472
आएको	-7473
हाको	-7474
▁अपर	-7475
▁आउँ	-7476
▁शब्	-7477
ात्मक	-7478
▁छापा	-7479
▁प्रब	-7480
▁मर्म	-7481
▁स्मि	-7482
▁१९५८	-7483
▁१९६५	-7484
▁कन्नड	-7485
▁दिव्य	-7486
स्थापना	-7487
▁पिताको	-7488
▁हुन्थे	-7489
▁महाराजा	-7490
▁गोर्खाली	-7491
▁जनआन्दोल	-7492
▁काङ्ग्रेस	-7493
▁यातायातका	-7494
६९	-7495
▁अज	-7496
▁बट	-7497
▁आफै	-7498
▁आर्	-7499
▁घाउ	-7500
▁घाट	-7501
ष्टिक	-7502
▁भाषण	-7503
▁दुग्ध	-7504
▁बढाउन	-7505
▁माइकल	-7506
▁सेल्स	-7507
▁गुम्बा	-7508
▁ज्वाला	-7509
▁नेवारी	-7510
▁गोदावरी	-7511
▁रिपोर्ट	-7512
▁डेनमार्क	-7513
▁उपन्यासमा	-7514
▁ज्ञानेन्द्र	-7515
जनी	-7516
पीठ	-7517
▁फ्	-7518
▁शर	-7519
काजी	-7520
धर्म	-7521
योजक	-7522
▁युए	-7523
▁पढाइ	-7524
▁नैतिक	-7525
▁फारसी	-7526
▁बर्मा	-7527
▁स्पेन	-7528
▁अंग्रे	-7529
▁अनुरूप	-7530
▁लेखेको	-7531
▁गोल्डकप	-7532
▁भएतापनि	-7533
▁महोत्सव	-7534
▁सिमानामा	-7535
▁निरन्तरता	-7536
ध्व	-7537
षेक	-7538
▁अठ	-7539
▁७२	-7540
पाती	-7541
▁गुल	-7542
▁झाँ	-7543
▁रोड	-7544
जस्तै	-7545
▁कौरव	-7546
▁क्लो	-7547
▁नराम	-7548
▁बक्स	-7549
▁बित्	-7550
▁रमेश	-7551
▁लागत	-7552
▁२०५२	-7553
▁महाधि	-7554
▁वाक्य	-7555
▁यात्रु	-7556
▁नक्षत्र	-7557
▁पारिवार	-7558
▁बुद्धको	-7559
▁वस्तुको	-7560
▁सुनुवार	-7561
▁उल्लेखित	-7562
▁तेह्रथुम	-7563
▁भानुभक्त	-7564
▁मन्त्रालयको	-7565
३८	-7566
४७	-7567
देन	-7568
▁५७	-7569
ब्रे	-7570
वधान	-7571
सफ्ट	-7572
स्कर	-7573
▁बहा	-7574
▁आसाम	-7575
▁खतरा	-7576
▁खानी	-7577
▁नवीन	-7578
▁बझाङ	-7579
▁ब्रु	-7580
▁व्यु	-7581
▁हानि	-7582
▁कार्ट	-7583
▁पोस्ट	-7584
▁बसन्त	-7585
▁मान्न	-7586
▁शाहका	-7587
केन्द्र	-7588
▁मनोनयन	-7589
▁सिङ्गा	-7590
▁सिपाही	-7591
▁पाठ्यक्रम	-7592
लट	-7593
४१	-7594
प्न	-7595
▁६८	-7596
टामा	-7597
थिन्	-7598
ल्दो	-7599
▁आजा	-7600
त्रेय	-7601
▁उत्स	-7602
▁उर्द	-7603
▁करिव	-7604
▁गुणा	-7605
▁घेरा	-7606
▁धूलो	-7607
▁बन्ध	-7608
▁भनें	-7609
▁भाषी	-7610
▁सुल्	-7611
▁गाउँका	-7612
▁प्रार्थ	-7613
▁समकालीन	-7614
▁नागरिकता	-7615
▁पेनाल्टी	-7616
▁विष्णुको	-7617
पदा	-7618
ेटि	-7619
▁अड	-7620
▁७१	-7621
ंशिक	-7622
▁अमा	-7623
▁कमि	-7624
▁दीप	-7625
▁नरि	-7626
ियाना	-7627
▁लामि	-7628
▁विनि	-7629
▁अनलाई	-7630
▁अवशेष	-7631
▁टेलिक	-7632
▁पछाडी	-7633
▁पाउनु	-7634
▁विनाश	-7635
▁कार्बन	-7636
▁भाडामा	-7637
▁भियतना	-7638
▁मिश्रण	-7639
▁लाग्दछ	-7640
▁सकेनन्	-7641
▁कात्तिक	-7642
▁फ्रेन्च	-7643
▁राखिन्छ	-7644
▁समारोहमा	-7645
▁अभिनेत्रीको	-7646
▁दक्षिणपूर्वी	-7647
५५	-7648
▁कलि	-7649
जस्तो	-7650
नेपाल	-7651
लाहरू	-7652
विकार	-7653
▁अनुप	-7654
▁काँग	-7655
▁दलका	-7656
▁राख्	-7657
▁आस्था	-7658
▁उपहार	-7659
▁चित्त	-7660
▁चेतना	-7661
▁रेलवे	-7662
▁सभाका	-7663
▁गुजरात	-7664
▁जोड्ने	-7665
▁थालिएको	-7666
▁न्यायिक	-7667
▁बौद्धिक	-7668
▁ब्रान्ड	-7669
▁विद्यमान	-7670
▁देशान्तरण	-7671
तल	-7672
ड्डा	-7673
मोहन	-7674
वारि	-7675
ृश्य	-7676
▁दौड	-7677
▁बुढ	-7678
र्ड्स	-7679
▁आफैं	-7680
▁फोर्	-7681
▁बढ्न	-7682
▁हङकङ	-7683
▁१९६३	-7684
▁२०६६	-7685
▁आर्मी	-7686
▁उपभोग	-7687
▁एकपटक	-7688
▁नाट्य	-7689
▁चलाउने	-7690
▁महासङ्घ	-7691
▁मानिसहरु	-7692
▁पारिवारिक	-7693
▁म्याड्रिड	-7694
▁विज्ञानको	-7695
▁साधारणतया	-7696
▁भिक्टोरिया	-7697
▁देशान्तरणमा	-7698
ंकर	-7699
आजा	-7700
कुश	-7701
धीन	-7702
वाङ	-7703
ासु	-7704
क्ला	-7705
वानी	-7706
▁पुत	-7707
▁मुह	-7708
▁में	-7709
▁समझ	-7710
न्समा	-7711
▁क्रा	-7712
▁गोरु	-7713
▁तटमा	-7714
▁तिनै	-7715
▁माइक	-7716
लेश्वर	-7717
▁प्याज	-7718
▁दार्चु	-7719
▁सुब्बा	-7720
▁तोकिएको	-7721
▁सरकारका	-7722
▁अन्तर्वा	-7723
▁कलाकारको	-7724
▁संयन्त्र	-7725
▁भाषाहरूको	-7726
▁प्रतिवेदनका	-7727
▁पुनर्निर्माण	-7728
ूत	-7729
ज्ज	-7730
यार	-7731
▁७८	-7732
ङ्की	-7733
दण्ड	-7734
पसार	-7735
▁गया	-7736
▁बीस	-7737
हत्या	-7738
▁खुर्स	-7739
▁धनगढी	-7740
▁लाग्न	-7741
▁वित्त	-7742
▁हुदैन	-7743
▁नजिकको	-7744
▁रोजगार	-7745
▁सुख्खा	-7746
▁कम्तिमा	-7747
▁बाहुल्य	-7748
▁युरोपमा	-7749
▁प्रतिरोध	-7750
▁ल्याइएको	-7751
▁खेलाडीहरूको	-7752
▁बङ्गलादेशका	-7753
पट	-7754
बिन	-7755
▁जर	-7756
▁मय	-7757
नबाट	-7758
▁कही	-7759
▁फेड	-7760
▁हेम	-7761
्यांक	-7762
▁अक्स	-7763
▁टोपी	-7764
▁मञ्ज	-7765
▁समित	-7766
▁१०००	-7767
▁२०५५	-7768
▁गाउने	-7769
▁चलाउन	-7770
▁मंगोल	-7771
▁स्टिल	-7772
▁जनताले	-7773
▁जिम्मा	-7774
▁स्काउट	-7775
▁हरियाणा	-7776
▁संस्थाले	-7777
▁सर्वोत्कृष्ट	-7778
नक	-7779
▁ग्	-7780
▁६३	-7781
▁९५	-7782
शासन	-7783
▁अपा	-7784
▁दाल	-7785
▁भेग	-7786
▁ब्रे	-7787
▁रिहा	-7788
कल्पिक	-7789
▁वार्ड	-7790
▁समयका	-7791
साहित्य	-7792
▁पानीका	-7793
▁पुरातन	-7794
▁बेलुका	-7795
प्रसिद्ध	-7796
▁अदालतमा	-7797
▁आम्दानी	-7798
▁चाडपर्व	-7799
▁बालीहरू	-7800
▁पञ्चायती	-7801
▁महाधिवेश	-7802
▁यसप्रकार	-7803
धु	-7804
बेर	-7805
दायी	-7806
र्खा	-7807
लाले	-7808
▁उखु	-7809
▁चास	-7810
लीलाई	-7811
▁आएकी	-7812
▁आफैँ	-7813
▁एकदम	-7814
▁कट्ट	-7815
▁गराई	-7816
▁टाइम	-7817
▁दण्ड	-7818
▁१९३०	-7819
▁उपदेश	-7820
▁एएफसी	-7821
▁मार्ट	-7822
▁पारेका	-7823
▁मार्ने	-7824
▁मुख्यत	-7825
▁घटनाहरू	-7826
▁चार्टमा	-7827
▁ओसारपसार	-7828
▁गर्नुभयो	-7829
▁गोलकर्ता	-7830
▁म्यानमार	-7831
▁मन्दिरहरू	-7832
▁यिनीहरूको	-7833
▁विषयवस्तु	-7834
कड	-7835
टेल	-7836
भास	-7837
होस	-7838
्न्	-7839
ङ्घा	-7840
▁नपा	-7841
▁बाय	-7842
▁हिड	-7843
▁हेड	-7844
शुल्क	-7845
▁खानु	-7846
▁त्या	-7847
▁दबाब	-7848
▁लडाई	-7849
▁आएपछि	-7850
▁खारेज	-7851
▁युगको	-7852
▁शाब्द	-7853
▁ह्वाइ	-7854
खुवासभा	-7855
▁तिनलाई	-7856
▁दुर्यो	-7857
▁यसैगरी	-7858
▁समर्थक	-7859
▁दस्तावे	-7860
▁विभागका	-7861
▁म्याकमेन	-7862
▁पृष्ठभूमि	-7863
▁सङ्क्रमित	-7864
▁६६	-7865
प्पो	-7866
माया	-7867
्याव	-7868
▁अवै	-7869
▁कैद	-7870
▁ठिक	-7871
▁फला	-7872
▁यजु	-7873
▁४००	-7874
ष्ठान	-7875
ियोजन	-7876
▁रेग्	-7877
▁हुदा	-7878
▁१९४०	-7879
▁२०६०	-7880
▁आसपास	-7881
▁उर्दू	-7882
▁एकजना	-7883
▁मार्स	-7884
▁महाकवि	-7885
▁शब्दमा	-7886
▁इस्लामी	-7887
▁कुनैपनि	-7888
▁नेपालकै	-7889
▁मेगावाट	-7890
▁शाब्दिक	-7891
▁अत्याधिक	-7892
शै	-7893
लोमा	-7894
्रोल	-7895
▁रूस	-7896
▁अपरा	-7897
▁उन्न	-7898
▁कयौं	-7899
▁निषे	-7900
▁लिगा	-7901
▁अनन्त	-7902
▁अनुसू	-7903
▁ग्रीक	-7904
▁असमर्थ	-7905
▁सुवर्ण	-7906
▁अन्तरगत	-7907
▁घरहरूमा	-7908
▁जनतालाई	-7909
▁महारानी	-7910
▁सुरूवात	-7911
▁किलोमीटर	-7912
▁कोरियाली	-7913
▁गर्दथ्यो	-7914
▁किलोमिटरको	-7915
▁पारलैङ्गिक	-7916
▁प्रतिस्पर्धी	-7917
३७	-7918
घात	-7919
सान	-7920
सिन	-7921
▁दह	-7922
▁हद	-7923
कोशी	-7924
▁कौश	-7925
▁मेन	-7926
▁रेश	-7927
दिन्छ	-7928
बीचको	-7929
मानको	-7930
▁क्रस	-7931
▁२०५१	-7932
▁यात्री	-7933
▁ब्यक्ति	-7934
▁महिलाले	-7935
▁स्विफ्टले	-7936
▁सेन्टिमिटर	-7937
▁अन्तर्वार्ता	-7938
फको	-7939
लाउ	-7940
लेन	-7941
हरि	-7942
▁भृ	-7943
मीले	-7944
▁नोक	-7945
▁मुर	-7946
▁विर	-7947
ज्ञात	-7948
स्रोत	-7949
ालीमा	-7950
▁आगमन	-7951
▁परमा	-7952
▁भूगोल	-7953
▁ढङ्गले	-7954
▁ग्रीष्म	-7955
▁मस्तिष्	-7956
▁उपमहाद्वी	-7957
▁प्रदर्शनी	-7958
▁व्यवसायीक	-7959
▁राष्ट्रवादी	-7960
▁अर्थशास्त्रमा	-7961
जंग	-7962
नास	-7963
▁मथ	-7964
कर्म	-7965
वनको	-7966
▁पूर	-7967
▁मत्	-7968
▁मुन	-7969
लम्बन	-7970
▁गुला	-7971
▁चाँड	-7972
▁चिना	-7973
▁अवकाश	-7974
▁जम्मू	-7975
▁दर्शक	-7976
▁पछ्या	-7977
▁पातको	-7978
▁पालना	-7979
▁बन्दै	-7980
▁बेल्ज	-7981
▁रमणीय	-7982
▁आह्वान	-7983
▁खेल्दै	-7984
▁पहाडको	-7985
▁विन्डोज	-7986
▁छायाङ्कन	-7987
▁खण्डहरूमा	-7988
▁पत्रिकाको	-7989
▁म्यानचेस्टर	-7990
▁प्रतिद्वन्द्व	-7991
०५	-7992
ंदै	-7993
गडा	-7994
वेट	-7995
▁चट	-7996
▁पथ	-7997
न्धर	-7998
▁नुन	-7999
▁मर्	-8000
▁एक्ल	-8001
▁जुम्	-8002
▁डिज्	-8003
▁डेटा	-8004
▁दशौँ	-8005
▁धनुष	-8006
▁भित्	-8007
▁२०६१	-8008
▁आज्ञा	-8009
▁नित्य	-8010
▁शामिल	-8011
▁चारवटा	-8012
▁पर्वमा	-8013
▁श्रमिक	-8014
▁एल्बमको	-8015
▁क्यानडा	-8016
▁पूर्वीय	-8017
▁साझेदार	-8018
▁रवीन्द्र	-8019
▁सुरक्षाको	-8020
▁माइक्रोसफ्ट	-8021
▁परिणामस्वरूप	-8022
▁कं	-8023
▁झि	-8024
बरमा	-8025
मुनि	-8026
▁दाइ	-8027
▁पसल	-8028
▁भूप	-8029
▁गोरू	-8030
▁जनमत	-8031
▁भेरी	-8032
रामर्श	-8033
▁खानको	-8034
▁जुद्ध	-8035
▁सिंहा	-8036
▁अनुसरण	-8037
▁पाँचथर	-8038
▁योद्धा	-8039
▁राजाका	-8040
▁लामिछा	-8041
▁लोकगीत	-8042
▁स्वदेश	-8043
▁स्विडेन	-8044
▁क्षत्रिय	-8045
▁केन्द्रिय	-8046
▁जिम्मेवार	-8047
▁चम	-8048
▁चू	-8049
वहार	-8050
साधन	-8051
स्पद	-8052
हिने	-8053
हेको	-8054
▁लिप	-8055
करणको	-8056
द्दीन	-8057
▁पायो	-8058
▁प्यु	-8059
▁राति	-8060
▁रावल	-8061
▁स्कु	-8062
ग्रीको	-8063
िन्छन्	-8064
▁किम्ब	-8065
▁द्वरा	-8066
▁नगरको	-8067
▁पातलो	-8068
▁गराउनु	-8069
▁भरिएको	-8070
▁राक्षस	-8071
▁वडाहरू	-8072
▁श्रावण	-8073
▁परिचालन	-8074
▁अभियानमा	-8075
▁निर्णायक	-8076
▁मानिसलाई	-8077
▁रङ्गशालामा	-8078
▁व्यवस्थाको	-8079
▁साँस्कृतिक	-8080
▁ग्रन्थहरूमा	-8081
महा	-8082
हाङ	-8083
्ये	-8084
कीको	-8085
ीलाई	-8086
▁खोल	-8087
▁वाट	-8088
▁हेन	-8089
▁खरीद	-8090
▁देखे	-8091
▁पारा	-8092
▁सम्व	-8093
▁२०६७	-8094
▁द्रुत	-8095
▁बत्ती	-8096
▁श्याम	-8097
▁अज्ञात	-8098
▁बृद्धि	-8099
▁युनियन	-8100
▁ट्वान्टी	-8101
▁संगीतकार	-8102
▁ङ	-8103
नेस	-8104
▁शौ	-8105
द्रो	-8106
फलको	-8107
मीका	-8108
वाणी	-8109
▁उरु	-8110
▁गुड	-8111
▁गेम	-8112
▁अरुण	-8113
▁कठोर	-8114
▁किशो	-8115
▁गीता	-8116
▁चुरे	-8117
▁निरी	-8118
▁महेश	-8119
▁मेजर	-8120
▁आंशिक	-8121
▁बिष्ट	-8122
▁भवानी	-8123
▁महान्	-8124
▁शब्दा	-8125
▁सिन्ध	-8126
▁सिलेट	-8127
▁पाँचौं	-8128
▁भूमध्य	-8129
▁परामर्श	-8130
▁दार्चुला	-8131
▁म्याग्दी	-8132
▁अमेरिकाका	-8133
▁उत्पादनमा	-8134
▁ओखलढुङ्गा	-8135
▁राष्ट्रीय	-8136
▁सदस्यहरूको	-8137
स्न	-8138
▁गइ	-8139
क्जे	-8140
डेली	-8141
▁किङ	-8142
▁कुव	-8143
▁खरब	-8144
▁चाप	-8145
▁दिल	-8146
▁रको	-8147
िकामा	-8148
▁कष्ट	-8149
▁केसी	-8150
▁बिदा	-8151
▁साहि	-8152
▁१९४६	-8153
▁१९५९	-8154
▁निजाम	-8155
▁याउने	-8156
▁हटाउन	-8157
▁कलेजमा	-8158
▁जनाउने	-8159
▁परिवेश	-8160
▁पाण्डु	-8161
▁सङ्घले	-8162
▁अनुमोदन	-8163
▁महात्मा	-8164
▁चिकित्सक	-8165
▁सुरुवातमा	-8166
थल	-8167
लस	-8168
गरि	-8169
▁घि	-8170
दलीय	-8171
न्ते	-8172
ल्सी	-8173
ैंचा	-8174
▁कलम	-8175
▁घना	-8176
▁थान	-8177
▁नाउ	-8178
▁पल्	-8179
स्टिक	-8180
▁कोलो	-8181
▁रोटी	-8182
▁सिन्	-8183
▁स्रो	-8184
कारीको	-8185
त्ताको	-8186
▁कस्तो	-8187
▁क्याप	-8188
▁झण्डै	-8189
▁देखिए	-8190
▁शारदा	-8191
▁सकेका	-8192
▁हैदरा	-8193
▁बेच्ने	-8194
▁अर्घाखा	-8195
▁टेलिफोन	-8196
▁भण्डारण	-8197
▁विश्वकै	-8198
▁सम्बद्ध	-8199
▁कञ्चनपुर	-8200
▁कम्पनीमा	-8201
▁चलिरहेको	-8202
▁फलफूलहरू	-8203
▁हुनुहुन्थ्यो	-8204
▁न्युजिल्यान्ड	-8205
▁लक्ष्मीप्रसाद	-8206
नाक	-8207
▁फी	-8208
वेदी	-8209
ष्णा	-8210
▁एप्	-8211
▁जीवा	-8212
▁बाधा	-8213
▁मुसा	-8214
▁वनमा	-8215
▁हाँस	-8216
ग्रस्त	-8217
▁क्रिस	-8218
▁बाँके	-8219
प्रसङ्ग	-8220
▁दुवैको	-8221
▁बोक्रा	-8222
▁वैष्णव	-8223
▁संसदमा	-8224
▁त्यहाँका	-8225
▁बेलायतको	-8226
▁महाभारतको	-8227
▁डिसेम्बरमा	-8228
९५	-8229
तत्व	-8230
ियाल	-8231
▁अजर	-8232
▁शोक	-8233
▁शोध	-8234
्याङ्	-8235
▁उर्व	-8236
▁कीरा	-8237
▁दुइट	-8238
▁२०२८	-8239
▁२०५७	-8240
▁आर्जन	-8241
▁जागिर	-8242
▁परिसर	-8243
▁पुगेर	-8244
▁अधीनमा	-8245
▁चिन्ता	-8246
▁ध्वस्त	-8247
▁राजदूत	-8248
▁ह्वाइट	-8249
▁भइसकेका	-8250
▁कम्पनीका	-8251
▁गृहयुद्ध	-8252
▁धवलागिरी	-8253
▁पदार्थको	-8254
▁बताउँछन्	-8255
▁सेल्सियस	-8256
▁तिनीहरूलाई	-8257
▁प्रतिस्थापन	-8258
२७	-8259
रुण	-8260
वाको	-8261
▁एलि	-8262
▁फेर	-8263
न्सिल	-8264
▁गहना	-8265
▁गाडा	-8266
▁गिरी	-8267
▁माने	-8268
▁लाइन	-8269
▁स्टक	-8270
▁१९५५	-8271
क्रामक	-8272
्याण्ड	-8273
▁आकृति	-8274
▁गर्नेछ	-8275
▁गोर्की	-8276
▁घटनाको	-8277
▁जङ्गली	-8278
▁दिनबाट	-8279
▁पन्ध्र	-8280
▁समृद्ध	-8281
▁स्तरीय	-8282
▁कुरालाई	-8283
▁टोलीलाई	-8284
▁काङ्ग्रे	-8285
▁मूल्याङ्क	-8286
▁वर्षहरूमा	-8287
▁प्राध्यापक	-8288
▁निम्नानुसार	-8289
▁प्रेमप्रसङ्ग	-8290
गान	-8291
फोर	-8292
ब्य	-8293
५००	-8294
▁९१	-8295
रहने	-8296
▁घाम	-8297
▁भरी	-8298
▁भाई	-8299
▁शिख	-8300
लिन्छ	-8301
▁पावर	-8302
▁फ्रि	-8303
▁वारा	-8304
▁सकिए	-8305
▁हुला	-8306
▁उद्यम	-8307
▁गाबिस	-8308
▁तरङ्ग	-8309
▁त्यहा	-8310
▁निवार	-8311
▁समक्ष	-8312
▁गरिदिए	-8313
▁गरीन्छ	-8314
▁नरसिंह	-8315
▁भेदभाव	-8316
▁रङ्गको	-8317
अन्तर्गत	-8318
▁चाहन्थे	-8319
▁बलात्कार	-8320
ंदैन	-8321
उनको	-8322
स्टो	-8323
▁ओभर	-8324
▁जम्	-8325
ङ्गार	-8326
तीर्ण	-8327
म्बार	-8328
म्शेर	-8329
▁नाउँ	-8330
▁भव्य	-8331
▁मातह	-8332
▁शरणा	-8333
नारायण	-8334
पश्चात	-8335
▁चण्डी	-8336
▁चाँडै	-8337
▁प्यार	-8338
▁सुम्प	-8339
▁जाजरको	-8340
▁जीवनका	-8341
▁बस्छन्	-8342
▁भागलाई	-8343
▁टोलीहरू	-8344
▁न्यूनतम	-8345
▁प्रसन्न	-8346
▁प्रार्थना	-8347
केश	-8348
गित	-8349
ट्र	-8350
ुजा	-8351
▁अँ	-8352
▁जौ	-8353
▁६१	-8354
डेल्	-8355
पाठी	-8356
बुटी	-8357
लहरू	-8358
्रास	-8359
▁अतः	-8360
▁घुम	-8361
▁निश	-8362
▁बाण	-8363
▁रिज	-8364
▁समै	-8365
ाउँदछ	-8366
ालयको	-8367
▁अम्ब	-8368
▁गरीब	-8369
▁बन्छ	-8370
▁बर्ग	-8371
▁बर्ष	-8372
▁अतिथि	-8373
▁ढुंगा	-8374
▁त्रिश	-8375
▁बोहरा	-8376
▁ब्यार	-8377
▁सम्वत	-8378
▁बागलुङ	-8379
▁बिजेता	-8380
▁भागहरू	-8381
▁लेखिका	-8382
▁बोलिन्छ	-8383
▁युद्धका	-8384
▁लेखापरी	-8385
▁तुलनात्मक	-8386
▁सम्मेलनमा	-8387
▁काठमाडौंमा	-8388
▁उपजिल्लालाई	-8389
▁क्षेत्रफलमा	-8390
खिक	-8391
ेवर	-8392
कामा	-8393
मानी	-8394
र्बा	-8395
▁दाउ	-8396
▁बिट	-8397
ासम्म	-8398
▁आर्म	-8399
▁आश्व	-8400
▁पटना	-8401
▁बयान	-8402
▁थालनी	-8403
▁बस्नु	-8404
▁मङ्गल	-8405
▁ताइवान	-8406
▁बाटोमा	-8407
▁कम्तीमा	-8408
▁गुणस्तर	-8409
▁हाटबजार	-8410
▁खेलाडीले	-8411
▁गिरफ्तार	-8412
▁दिल्लीमा	-8413
▁प्रशान्त	-8414
▁राज्यलाई	-8415
▁सङ्गीतको	-8416
▁अफ्रिकामा	-8417
▁इन्जिनियर	-8418
▁गाउँपालिकामा	-8419
▁जनसङ्ख्यालाई	-8420
▁अस्ट्रेलियाको	-8421
गै	-8422
ुस	-8423
मणि	-8424
िना	-8425
ोदर	-8426
▁द्	-8427
रेखा	-8428
ल्ली	-8429
▁चुच	-8430
▁झन्	-8431
▁तेश	-8432
संहार	-8433
▁अल्ब	-8434
▁टेलर	-8435
▁आमाले	-8436
▁काराग	-8437
▁खेलका	-8438
▁तिर्थ	-8439
▁पदबाट	-8440
▁राजेश	-8441
▁सनातन	-8442
▁जुनसुकै	-8443
▁ज्ञानको	-8444
▁निस्कने	-8445
▁फराकिलो	-8446
▁गरिसकेको	-8447
▁प्रावधान	-8448
▁कार्यकालको	-8449
▁स्म्याकडाउन	-8450
एक	-8451
ोस्	-8452
प्चा	-8453
लोको	-8454
▁नक्	-8455
▁सवै	-8456
वर्तन	-8457
वासीय	-8458
ियनको	-8459
▁अस्ट	-8460
▁इम्प	-8461
▁एफसी	-8462
▁गाढा	-8463
▁फिजी	-8464
▁बाँस	-8465
▁मामा	-8466
▁एक्सन	-8467
▁चेन्न	-8468
▁पक्की	-8469
▁मिल्छ	-8470
पश्चात्	-8471
▁आकारमा	-8472
▁युक्रे	-8473
▁हेर्नु	-8474
▁अहिल्या	-8475
▁कारबाही	-8476
▁अध्यायमा	-8477
▁त्यहाँको	-8478
▁निस्कासन	-8479
▁प्रकारले	-8480
▁बस्न्यात	-8481
▁सेमिफाइन	-8482
▁विद्यावारि	-8483
▁विश्वकर्मा	-8484
▁पुरातात्विक	-8485
५८	-8486
ँको	-8487
किल	-8488
जुए	-8489
जुद	-8490
बको	-8491
ब्स	-8492
भान	-8493
राख	-8494
▁एज	-8495
▁कण	-8496
▁झो	-8497
▁९९	-8498
बाबु	-8499
र्को	-8500
▁अभय	-8501
▁उता	-8502
▁चढा	-8503
▁पिक	-8504
▁बसी	-8505
▁बाद	-8506
▁भिर	-8507
▁कटहर	-8508
▁घुमा	-8509
▁पठाइ	-8510
▁बर्म	-8511
▁१९५७	-8512
▁अग्ला	-8513
▁ऋतुमा	-8514
▁कर्जा	-8515
▁चल्ने	-8516
▁छैटौँ	-8517
▁यसअघि	-8518
▁रहस्य	-8519
▁श्रीम	-8520
▁आँखाको	-8521
▁कसैलाई	-8522
▁बुबाको	-8523
▁प्रक्षे	-8524
▁प्रयोजन	-8525
▁उपभोक्ता	-8526
▁विस्तारै	-8527
▁चलचित्रले	-8528
▁लेनिनवादी	-8529
▁चलचित्रलाई	-8530
▁सरकारद्वारा	-8531
राह	-8532
▁मझ	-8533
▁लय	-8534
चरित	-8535
भिया	-8536
स्पर	-8537
ेलले	-8538
▁पाक	-8539
▁बरि	-8540
▁भात	-8541
▁भेष	-8542
▁ठेला	-8543
▁दुरी	-8544
▁काष्ठ	-8545
▁भाइरस	-8546
▁उरुग्व	-8547
▁मिल्दो	-8548
▁स्वागत	-8549
▁काठमाडौ	-8550
▁गराइएको	-8551
▁पारिएको	-8552
▁भिटामिन	-8553
▁मेलाहरू	-8554
▁व्युत्प	-8555
▁राजकुमारी	-8556
इज	-8557
खान	-8558
नदी	-8559
गन्ज	-8560
ेटिक	-8561
▁क्ल	-8562
▁गेट	-8563
▁मनि	-8564
▁शतक	-8565
▁लण्ड	-8566
▁स्तु	-8567
▁२०४९	-8568
▁कथाको	-8569
▁डडेल्	-8570
▁मार्न	-8571
▁सम्बत	-8572
▁राखियो	-8573
▁सम्हाल	-8574
▁इन्डियन	-8575
▁भेटिन्छ	-8576
▁हिमालको	-8577
▁देशान्तर	-8578
▁फर्किएका	-8579
▁बारम्बार	-8580
▁बासस्थान	-8581
▁यात्राको	-8582
▁अध्यक्षको	-8583
▁प्रक्रियामा	-8584
६४	-8585
आमा	-8586
इको	-8587
काय	-8588
त्स	-8589
म्व	-8590
ान्	-8591
गाले	-8592
डीमा	-8593
धनको	-8594
▁कथन	-8595
▁मेह	-8596
▁लोग	-8597
देवता	-8598
स्कृत	-8599
ुवाको	-8600
्यारी	-8601
▁कारक	-8602
▁डेमो	-8603
▁नजरु	-8604
▁रुपा	-8605
▁अम्बा	-8606
▁दिइने	-8607
▁बहराइ	-8608
न्यासको	-8609
्सम्यान	-8610
▁लिपिको	-8611
▁बर्दिया	-8612
▁बैङ्कले	-8613
▁पुस्तकको	-8614
▁प्रतिष्ठा	-8615
▁शेरबहादुर	-8616
▁सङ्गीतकार	-8617
▁मनोवैज्ञानिक	-8618
ठ्	-8619
टिङ	-8620
▁थे	-8621
च्छि	-8622
▁अका	-8623
▁पेय	-8624
▁बाख	-8625
▁उपास	-8626
▁गुरा	-8627
▁भेने	-8628
▁मुख्	-8629
▁काठको	-8630
▁किनकी	-8631
▁जातको	-8632
▁रथहरू	-8633
▁वैद्य	-8634
▁सक्नु	-8635
▁हरिहर	-8636
▁अनलाईन	-8637
▁खेलबाट	-8638
▁तेश्रो	-8639
▁अंग्रेज	-8640
▁इस्लामा	-8641
▁यहाँबाट	-8642
▁संसारका	-8643
▁खुर्सानी	-8644
▁त्यसकारण	-8645
▁बृहस्पति	-8646
▁लामिछाने	-8647
▁वैकल्पिक	-8648
▁विजेताहरू	-8649
▁विश्वेश्वर	-8650
▁जनसङ्ख्याले	-8651
▁व्यक्तिहरूलाई	-8652
िग	-8653
६२	-8654
पास	-8655
यिक	-8656
ल्छ	-8657
▁टन	-8658
चानक	-8659
ब्रा	-8660
लाग्	-8661
्लाद	-8662
▁तस्	-8663
▁मैथ	-8664
योर्क	-8665
ाउनमा	-8666
▁दशमल	-8667
▁बाग्	-8668
▁हिँड	-8669
▁१९२०	-8670
▁उत्खन	-8671
▁ज्ञात	-8672
▁पिसाब	-8673
▁प्रवि	-8674
▁ब्लिस	-8675
▁भर्खर	-8676
▁म्याद	-8677
▁रंगको	-8678
▁संवाद	-8679
▁साम्य	-8680
▁स्ट्र	-8681
▁कान्छी	-8682
▁क्लबबाट	-8683
▁नजिकैको	-8684
▁पूजाआजा	-8685
▁तिब्बतको	-8686
▁समेटिएको	-8687
▁डडेल्धुरा	-8688
▁सम्हालेका	-8689
ेकर	-8690
▁हड	-8691
न्टे	-8692
र्सन	-8693
▁खोप	-8694
▁निः	-8695
र्धमा	-8696
्याली	-8697
▁जोसे	-8698
▁तिहा	-8699
▁बच्च	-8700
▁शोभा	-8701
▁आगामी	-8702
▁आरक्ष	-8703
▁खालका	-8704
▁गोप्य	-8705
▁दायरा	-8706
▁नेटाल	-8707
▁मूलतः	-8708
▁मोक्ष	-8709
▁एक्सचे	-8710
▁यिनलाई	-8711
▁दरबारको	-8712
▁परिसरमा	-8713
क्षेत्रमा	-8714
▁देखाइएको	-8715
▁सभ्यताको	-8716
▁पत्रिकामा	-8717
▁परराष्ट्र	-8718
जू	-8719
डल	-8720
आउट	-8721
कान	-8722
मोर	-8723
▁आक	-8724
त्ते	-8725
▁गढी	-8726
▁चाइ	-8727
▁थिय	-8728
▁नमू	-8729
▁भिम	-8730
▁शही	-8731
▁आराध	-8732
▁इङ्ग	-8733
▁इञ्ज	-8734
▁बच्न	-8735
▁षड्य	-8736
▁अजरबै	-8737
▁गार्ड	-8738
▁दशमलव	-8739
▁रक्सी	-8740
▁सन्या	-8741
▁हराउन	-8742
▁आदित्य	-8743
▁खरबुजा	-8744
▁सहकारी	-8745
ल्याण्डको	-8746
▁देशहरूको	-8747
▁बन्दरगाह	-8748
▁स्थानबाट	-8749
▁षड्यन्त्र	-8750
▁चिनिन्थ्यो	-8751
▁अर्थशास्त्रको	-8752
दश	-8753
बह	-8754
ेे	-8755
ँडो	-8756
पुल	-8757
राय	-8758
लोन	-8759
ौलो	-8760
▁अट	-8761
▁६२	-8762
्रां	-8763
▁जनै	-8764
▁भिड	-8765
▁सित	-8766
हरणको	-8767
▁गीति	-8768
▁आउँदा	-8769
▁थाल्छ	-8770
▁हार्ड	-8771
▁अभिनित	-8772
▁पुनर्ग	-8773
▁बताएको	-8774
▁अभिनयको	-8775
▁प्रत्या	-8776
▁फुटबलमा	-8777
▁बताइन्छ	-8778
▁विदेशमा	-8779
▁पर्यावरण	-8780
▁विद्वान्	-8781
▁डिकद्वारा	-8782
▁गोर्कीद्वारा	-8783
▁अस्ट्रेलियाली	-8784
गर्	-8785
निर	-8786
युग	-8787
▁सँ	-8788
▁०९	-8789
उनले	-8790
गतको	-8791
ड्नु	-8792
न्डे	-8793
न्नी	-8794
श्रु	-8795
▁अख्	-8796
▁मला	-8797
भागमा	-8798
▁जडान	-8799
▁टेक्	-8800
▁डाँठ	-8801
▁दशैं	-8802
▁पाठे	-8803
▁पिक्	-8804
▁बिहे	-8805
▁योगी	-8806
▁रहित	-8807
▁लगाइ	-8808
▁ल्हा	-8809
▁हिरा	-8810
नात्मक	-8811
प्रवाह	-8812
▁अचानक	-8813
▁डेभिड	-8814
▁दौरान	-8815
▁भवनको	-8816
▁लिगका	-8817
▁शून्य	-8818
लक्ष्मी	-8819
▁कामदार	-8820
▁परन्तु	-8821
▁बनाइने	-8822
▁माथिको	-8823
▁संयोजक	-8824
▁स्टेसन	-8825
▁नरसंहार	-8826
▁प्रतिमा	-8827
▁भुटानको	-8828
▁विवाहको	-8829
▁शमशेरले	-8830
▁स्मार्ट	-8831
▁भविष्यमा	-8832
▁माछापालन	-8833
▁विशेषगरी	-8834
▁कोइरालाको	-8835
▁प्रतिलिपि	-8836
▁ब्याट्सम्यान	-8837
▁प्रतियोगिताहरू	-8838
छो	-8839
०९	-8840
हिन	-8841
बादी	-8842
भद्र	-8843
रचना	-8844
▁उब्	-8845
▁दया	-8846
▁धित	-8847
▁धीर	-8848
▁नमा	-8849
▁मिथ	-8850
▁सोन	-8851
▁हलि	-8852
▁२५०	-8853
ट्रिक	-8854
ानामा	-8855
▁केबल	-8856
▁खनिज	-8857
▁जनजा	-8858
▁मोटो	-8859
स्तरीय	-8860
▁आतङ्क	-8861
▁ब्राउ	-8862
▁मारिए	-8863
▁लन्डन	-8864
▁स्तूप	-8865
▁स्मिथ	-8866
▁ग्राहक	-8867
▁छोराको	-8868
▁फुल्ने	-8869
▁दाजुभाइ	-8870
▁देखाएको	-8871
▁प्रसङ्ग	-8872
▁परिषद्को	-8873
▁भोलिपल्ट	-8874
▁स्वीकृति	-8875
▁सेवाहरूको	-8876
▁स्थापनाको	-8877
▁लोकप्रियता	-8878
▁प्रतिवेदनमा	-8879
▁व्यवस्थापिका	-8880
▁प्रतिद्वन्द्वी	-8881
६७	-8882
डका	-8883
पुत	-8884
शाह	-8885
िट्	-8886
▁आश	-8887
▁इज	-8888
न्धा	-8889
श्यप	-8890
ष्ठा	-8891
ानका	-8892
ामुख	-8893
▁इमा	-8894
▁एसो	-8895
▁चरम	-8896
▁सरस	-8897
▁सल्	-8898
ङ्ग्य	-8899
निक्स	-8900
न्टिक	-8901
शिष्ठ	-8902
▁नाफा	-8903
▁राती	-8904
▁हङ्ग	-8905
▁१९४२	-8906
▁२०३२	-8907
▁कसैको	-8908
▁पाइलट	-8909
▁बढ्ने	-8910
▁बोकेर	-8911
ेश्वरको	-8912
▁उनीसँग	-8913
▁पुजारी	-8914
▁पेशेवर	-8915
▁वस्त्र	-8916
▁पञ्जाबी	-8917
▁रहन्छन्	-8918
▁विभागले	-8919
▁खानेपानी	-8920
▁प्रसारित	-8921
▁स्थानहरू	-8922
राष्ट्रपति	-8923
▁उपत्यकाका	-8924
▁चिनिन्छन्	-8925
▁प्रतिपादन	-8926
▁प्राथमिकता	-8927
६१	-8928
लेस	-8929
िसि	-8930
्वे	-8931
गरीय	-8932
हुने	-8933
२०६८	-8934
▁ओटा	-8935
▁शरि	-8936
▁समर	-8937
▁१७९	-8938
▁उग्र	-8939
▁चालक	-8940
▁देउर	-8941
▁रिलि	-8942
▁सर्ब	-8943
▁एन्टि	-8944
▁करियर	-8945
▁ईन्द्र	-8946
▁उच्चतम	-8947
▁घाँसको	-8948
▁तान्ने	-8949
▁अहिलेको	-8950
▁कोङ्कणी	-8951
▁कोलकाता	-8952
▁पुराणमा	-8953
▁मुस्ताङ	-8954
▁मुहम्मद	-8955
शास्त्रमा	-8956
▁अभिमन्यु	-8957
▁बच्चालाई	-8958
▁मदरसाहरू	-8959
▁तान्त्रिक	-8960
▁अर्घाखाँची	-8961
▁राज्यहरूमा	-8962
कस	-8963
वनी	-8964
ौदा	-8965
▁०५	-8966
निका	-8967
▁कोण	-8968
▁वसु	-8969
ालियन	-8970
▁आयाम	-8971
▁इष्ट	-8972
▁कपको	-8973
▁१९५१	-8974
▁१९५३	-8975
▁२०३०	-8976
संख्यक	-8977
▁ग्रुप	-8978
▁चैत्य	-8979
▁बन्दी	-8980
मण्डलमा	-8981
▁अनुपात	-8982
▁गोकर्ण	-8983
▁बाजुरा	-8984
▁विकल्प	-8985
▁कालिकोट	-8986
▁गोत्रका	-8987
▁झारखण्ड	-8988
▁कार्यलाई	-8989
▁प्रक्षेपण	-8990
▁रूपन्देही	-8991
▁प्रवर्द्धन	-8992
▁मूल्याङ्कन	-8993
वधि	-8994
शाल	-8995
ूले	-8996
न्टो	-8997
बीसी	-8998
लिंग	-8999
ष्मा	-9000
▁अटो	-9001
▁अस्	-9002
▁यशो	-9003
▁रुस	-9004
▁१२०	-9005
र्सको	-9006
▁खासै	-9007
▁जिते	-9008
▁लैजा	-9009
▁संकट	-9010
▁१९१४	-9011
श्चर्य	-9012
▁अपहरण	-9013
▁एक्लै	-9014
▁काटेर	-9015
▁ग्रेट	-9016
▁घनत्व	-9017
▁तृतीय	-9018
▁दुइटै	-9019
▁प्रोफ	-9020
▁फूलको	-9021
▁मराठा	-9022
▁साधना	-9023
▁अन्यमा	-9024
▁जित्यो	-9025
▁त्यसरी	-9026
▁दिनलाई	-9027
▁नदिहरू	-9028
▁पब्लिक	-9029
▁बनाइयो	-9030
▁लक्ष्म	-9031
▁सिक्का	-9032
▁ब्यान्ड	-9033
▁प्रयुक्त	-9034
धनी	-9035
सेर	-9036
ुको	-9037
▁०८	-9038
▁अबु	-9039
▁चोप	-9040
▁छैठ	-9041
▁डेल	-9042
▁लेक	-9043
कामना	-9044
किन्छ	-9045
तापनि	-9046
▁अद्व	-9047
▁आहार	-9048
▁कर्प	-9049
▁लाग्	-9050
▁हार्	-9051
▁दिँदै	-9052
▁नेशनल	-9053
▁वक्ता	-9054
स्तानको	-9055
▁एकिकरण	-9056
▁ख्याति	-9057
▁गरीएको	-9058
▁बिरालो	-9059
▁हिमाचल	-9060
▁करियरको	-9061
▁जाजरकोट	-9062
▁फाल्गुन	-9063
▁सुन्तला	-9064
▁हामीलाई	-9065
▁निकाल्ने	-9066
▁सूचीबद्ध	-9067
▁अफ्रिकाको	-9068
▁कथासङ्ग्रह	-9069
▁क्याम्पसमा	-9070
▁अर्थशास्त्री	-9071
म्न	-9072
▁कू	-9073
▁मद	-9074
क्या	-9075
दिनु	-9076
दीमा	-9077
न्डै	-9078
र्सी	-9079
▁अरि	-9080
▁नाक	-9081
▁महल	-9082
▁मिर	-9083
टिक्स	-9084
पट्टी	-9085
▁अवैध	-9086
▁आतंक	-9087
▁काका	-9088
▁ताजा	-9089
▁दूरी	-9090
▁पारे	-9091
▁भन्छ	-9092
गण्डकी	-9093
जात्रा	-9094
सम्मका	-9095
▁अड्डा	-9096
▁आदिका	-9097
▁नामका	-9098
▁पुँजी	-9099
▁पुष्प	-9100
▁श्राप	-9101
▁कुटानी	-9102
▁बिलियन	-9103
▁मत्स्य	-9104
▁शैलीको	-9105
▁समाजका	-9106
▁आश्चर्य	-9107
▁नराम्रो	-9108
▁पूर्वको	-9109
▁प्युठान	-9110
▁ब्याक्ट	-9111
▁संचालित	-9112
▁अभियानको	-9113
▁प्रस्थान	-9114
▁भित्र्या	-9115
▁कम्पनीलाई	-9116
▁नकारात्मक	-9117
▁फ्रान्समा	-9118
▁माल्दिभ्स	-9119
▁हुनुपर्दछ	-9120
दीप	-9121
पूत	-9122
रका	-9123
वले	-9124
कृया	-9125
च्ची	-9126
भूषण	-9127
सिङ्	-9128
▁अंत	-9129
▁एडम	-9130
▁नला	-9131
▁माद	-9132
द्वाज	-9133
बन्दी	-9134
▁आदान	-9135
▁आवास	-9136
▁किंव	-9137
▁कोपा	-9138
▁बलको	-9139
▁ब्यब	-9140
▁१९१८	-9141
▁२०२४	-9142
सियाको	-9143
▁जातका	-9144
▁डलरको	-9145
▁बचाउन	-9146
▁ब्वाँ	-9147
▁रातमा	-9148
▁रेन्ज	-9149
▁उद्धार	-9150
▁दोहोरो	-9151
▁फ्लेयर	-9152
▁रुद्रा	-9153
▁वर्षीय	-9154
▁गर्नुका	-9155
▁महानिरी	-9156
▁ईसापूर्व	-9157
▁उत्तीर्ण	-9158
▁पोर्चुगल	-9159
▁प्रभुत्व	-9160
▁प्रमुखको	-9161
▁प्रयोगको	-9162
▁महिलालाई	-9163
▁मान्दछन्	-9164
▁हुनसक्ने	-9165
▁फिनल्यान्ड	-9166
लन	-9167
ौप	-9168
उको	-9169
▁९८	-9170
परित	-9171
बाबा	-9172
मन्द	-9173
▁नाथ	-9174
र्द्ध	-9175
▁गूगल	-9176
▁बुझा	-9177
▁माघे	-9178
▁सहमत	-9179
▁कलकार	-9180
▁गाएका	-9181
▁जोर्ड	-9182
▁परिमा	-9183
▁बढ्यो	-9184
▁ब्याड	-9185
▁भाँडा	-9186
▁रसिया	-9187
▁रामको	-9188
▁लाहोर	-9189
▁हातले	-9190
▁आत्मसम	-9191
▁कागजात	-9192
▁गिरिजा	-9193
▁मौसममा	-9194
▁गरेकाले	-9195
▁चारैतिर	-9196
▁मारिएका	-9197
▁मिलिमिटर	-9198
▁वर्गीकृत	-9199
▁विद्रोही	-9200
▁विद्यालयको	-9201
मिक	-9202
बिसी	-9203
र्तु	-9204
▁अमि	-9205
▁ठहर	-9206
▁साई	-9207
▁हरु	-9208
पुरका	-9209
र्श्व	-9210
साहेब	-9211
▁आयात	-9212
▁एचले	-9213
▁कत्य	-9214
▁बनेर	-9215
▁लिची	-9216
▁होली	-9217
▁१९२१	-9218
▁२०५०	-9219
▁कलंकी	-9220
▁खानेक	-9221
▁गाईको	-9222
▁पखेटा	-9223
▁पटकथा	-9224
▁प्रसि	-9225
▁प्लेट	-9226
▁बनावट	-9227
▁ब्याज	-9228
▁सशक्त	-9229
▁कथाकार	-9230
▁जातिले	-9231
▁डिज्नी	-9232
▁त्यहीँ	-9233
▁प्रेमी	-9234
▁बालुवा	-9235
▁माताको	-9236
▁व्यस्त	-9237
▁हिरण्य	-9238
▁गर्भवती	-9239
▁ल्याएका	-9240
▁सापेक्ष	-9241
▁आक्रमणको	-9242
▁गान्धीको	-9243
▁तिब्बतमा	-9244
▁दिल्लीको	-9245
▁उपन्यासको	-9246
▁एनएक्सटीको	-9247
▁कार्यकालमा	-9248
▁दृष्टिकोणले	-9249
▁श्रीलङ्काको	-9250
झो	-9251
पिङ	-9252
लीन	-9253
ौरा	-9254
प्रो	-9255
फर्म	-9256
बाडी	-9257
▁आइओ	-9258
▁बसु	-9259
त्रको	-9260
▁छोटा	-9261
▁दोषी	-9262
▁पूरै	-9263
▁माडी	-9264
▁२०३९	-9265
ग्रन्थ	-9266
सरकारी	-9267
▁आफन्त	-9268
▁मलयाल	-9269
▁वृत्त	-9270
▁स्पेस	-9271
▁आवासीय	-9272
▁टुप्पो	-9273
▁लक्षित	-9274
▁सन्तोष	-9275
▁रूपैयाँ	-9276
▁शरीरलाई	-9277
▁समग्रमा	-9278
▁सामुहिक	-9279
▁खेलकुदमा	-9280
▁दुर्योधन	-9281
▁दृश्यहरू	-9282
▁पत्रपत्र	-9283
▁बङ्गालमा	-9284
▁लडिरहेका	-9285
▁शरणार्थी	-9286
▁हैदराबाद	-9287
▁कलकारखाना	-9288
▁गर्नुहोस्	-9289
▁ब्रह्माण्ड	-9290
▁कार्यपालिका	-9291
▁उपराष्ट्रपति	-9292
आन	-9293
किम	-9294
षाढ	-9295
ेदन	-9296
ेयक	-9297
चालय	-9298
ोलिक	-9299
▁आँक	-9300
▁गान	-9301
▁पिप	-9302
▁मनस	-9303
▁साग	-9304
▁हिं	-9305
त्रिम	-9306
र्जुन	-9307
▁उज्य	-9308
▁कन्ट	-9309
▁कयौँ	-9310
▁क्षय	-9311
▁जेठो	-9312
▁धुलो	-9313
ङ्ग्रा	-9314
वृद्धि	-9315
्याक्ट	-9316
▁किनार	-9317
▁कुम्भ	-9318
▁नेपोल	-9319
▁सरेका	-9320
▁हुलाक	-9321
ञ्ज्याङ	-9322
▁अभिभाव	-9323
▁जमिनमा	-9324
▁ठाँउमा	-9325
▁पर्वको	-9326
▁बन्दुक	-9327
▁बाछिटा	-9328
▁मध्यको	-9329
▁मिल्दछ	-9330
▁लोकसभा	-9331
▁ल्याएर	-9332
▁सामन्त	-9333
▁जोडिएका	-9334
▁ध्यानमा	-9335
▁बिहारको	-9336
▁भगवानको	-9337
▁वास्तुक	-9338
▁समालोचक	-9339
▁समितिका	-9340
▁खानेकुरा	-9341
▁प्रायजसो	-9342
▁आत्महत्या	-9343
▁धारावाहिक	-9344
▁प्रकृतिको	-9345
▁म्याक्सिम	-9346
छी	-9347
ग्न	-9348
चाप	-9349
मला	-9350
मेद	-9351
▁७६	-9352
त्ने	-9353
पाटी	-9354
लिने	-9355
▁नपु	-9356
▁पोथ	-9357
▁बचा	-9358
▁बल्	-9359
▁बोध	-9360
न्तुक	-9361
ानिया	-9362
▁कवित	-9363
▁प्रय	-9364
▁माझी	-9365
▁रोगी	-9366
▁१९१७	-9367
द्धारा	-9368
पक्षीय	-9369
▁अलावा	-9370
▁उद्गम	-9371
▁कम्बो	-9372
▁कामका	-9373
▁कोषको	-9374
▁गढवाल	-9375
▁पद्मा	-9376
▁प्रोड	-9377
▁बहुरा	-9378
▁मानेर	-9379
▁संगठन	-9380
▁खुलासा	-9381
▁जातिमा	-9382
▁जापानमा	-9383
▁योग्यता	-9384
▁विश्राम	-9385
▁यात्रामा	-9386
▁वर्षदेखि	-9387
▁मन्दिरलाई	-9388
▁कुखुरापालन	-9389
▁६७	-9390
ंगिक	-9391
क्दा	-9392
ग्नु	-9393
ड्डी	-9394
दुर्	-9395
शिला	-9396
▁कटु	-9397
▁घोर	-9398
▁जाय	-9399
▁ठेग	-9400
कन्या	-9401
वृत्त	-9402
▁खरेल	-9403
▁पुति	-9404
▁पोशा	-9405
प्रमुख	-9406
▁इलाहा	-9407
▁मधुमे	-9408
▁राणाले	-9409
▁लगाउनु	-9410
▁सद्भाव	-9411
▁सेन्टर	-9412
▁अनुबन्ध	-9413
▁मण्डलको	-9414
▁मार्चमा	-9415
▁बालकृष्ण	-9416
▁प्रोग्राम	-9417
▁फिलिपिन्स	-9418
▁यातायातको	-9419
▁संविधानमा	-9420
▁महेन्द्रले	-9421
▁प्रतिस्पर्धामा	-9422
किक	-9423
▁अा	-9424
ूपमा	-9425
▁जेन	-9426
▁टाँ	-9427
▁रजत	-9428
टिलीय	-9429
लाउने	-9430
▁आइन्	-9431
▁ढकाल	-9432
▁भ्यु	-9433
▁मस्य	-9434
▁मारि	-9435
▁शहरी	-9436
▁अक्सि	-9437
▁आहारा	-9438
▁ग्याल	-9439
▁देहरा	-9440
▁द्रौप	-9441
▁मौर्य	-9442
▁छुट्टा	-9443
▁दामोदर	-9444
▁निवारण	-9445
▁शाहलाई	-9446
▁सहरलाई	-9447
▁उत्पादक	-9448
▁कौटिलीय	-9449
▁खेल्छन्	-9450
▁वंशावली	-9451
▁समाप्ति	-9452
▁उदाहरणको	-9453
▁तालिकामा	-9454
▁निष्कर्ष	-9455
▁विधानसभा	-9456
▁सम्भावित	-9457
▁किलोग्राम	-9458
▁निष्क्रिय	-9459
▁महिनासम्म	-9460
▁स्पोर्ट्स	-9461
▁सेप्टेम्बरमा	-9462
कां	-9463
द्म	-9464
धको	-9465
ेडी	-9466
ौरी	-9467
▁८२	-9468
ंकार	-9469
पूजा	-9470
▁कुम	-9471
▁निभ	-9472
▁नील	-9473
▁परो	-9474
शृङ्ख	-9475
स्टार	-9476
▁उनमा	-9477
▁गुँड	-9478
▁झ्या	-9479
▁नर्त	-9480
▁पहें	-9481
▁विवा	-9482
विद्या	-9483
▁उर्दु	-9484
▁कालको	-9485
▁कुवेत	-9486
▁पाँचौ	-9487
▁फर्का	-9488
▁भवनमा	-9489
▁श्रवण	-9490
▁समैजी	-9491
▁थालियो	-9492
▁बसाइँस	-9493
▁माटोको	-9494
▁रणनीति	-9495
▁हदसम्म	-9496
▁भित्रको	-9497
▁रहेकाले	-9498
▁सम्भवतः	-9499
▁सुल्तान	-9500
▁स्ट्राइ	-9501
▁अप्रिलमा	-9502
▁तुरुन्तै	-9503
▁थाइल्यान्ड	-9504
▁सदस्यहरूले	-9505
▁सफलतापूर्वक	-9506
▁विद्यार्थीहरू	-9507
उदै	-9508
जिन	-9509
▁कफ	-9510
▁डच	-9511
▁८१	-9512
इटिस	-9513
त्वा	-9514
पनको	-9515
याको	-9516
र्नी	-9517
वनमा	-9518
्यको	-9519
▁इको	-9520
▁दाँ	-9521
▁नखु	-9522
▁पाएर	-9523
▁पिठो	-9524
▁सिम्	-9525
▁सुबि	-9526
ियालाई	-9527
▁क्याथ	-9528
▁तिनका	-9529
▁लिन्छ	-9530
▁विराट	-9531
वेदनशील	-9532
▁अन्तर्	-9533
▁डोल्पा	-9534
▁पूर्वज	-9535
▁बगैंचा	-9536
▁आमन्त्र	-9537
▁डाउनलोड	-9538
▁देखिएका	-9539
▁परिषदको	-9540
▁भेनेजुए	-9541
▁शर्माले	-9542
▁उनीहरूका	-9543
▁वर्गिकरण	-9544
▁व्यवसायी	-9545
▁हनुमानको	-9546
▁क्यानडेली	-9547
▁महाभारतमा	-9548
▁महिलाहरूले	-9549
०३	-9550
५२	-9551
ंग्	-9552
उनी	-9553
कुट	-9554
हाउ	-9555
▁इर	-9556
▁कब	-9557
▁चक	-9558
▁धौ	-9559
▁शव	-9560
▁७७	-9561
न्दर	-9562
समूह	-9563
हारा	-9564
ियता	-9565
▁असं	-9566
▁एसि	-9567
▁रङ्	-9568
▁रोय	-9569
फिल्ड	-9570
▁एथले	-9571
▁एप्प	-9572
▁ग्वा	-9573
▁दिउँ	-9574
▁पाउँ	-9575
▁सिंग	-9576
अधिकार	-9577
▁खत्री	-9578
▁घटेको	-9579
▁मनाउन	-9580
▁मस्को	-9581
▁वेल्स	-9582
▁जयन्ती	-9583
▁नाच्ने	-9584
▁प्राइम	-9585
▁रोबर्ट	-9586
▁हटाउने	-9587
▁दृश्यमा	-9588
▁बङ्गालका	-9589
▁जनविश्वास	-9590
▁सामग्रीको	-9591
▁स्थलहरूको	-9592
▁इस्लामाबाद	-9593
▁केन्द्रहरूको	-9594
चाह	-9595
ोलु	-9596
▁टू	-9597
▁७३	-9598
ठीको	-9599
ाल्ड	-9600
▁खाम	-9601
▁ड्य	-9602
▁धुन	-9603
▁फेद	-9604
▁रेख	-9605
▁सिँ	-9606
▁आप्र	-9607
▁आर्क	-9608
▁गद्य	-9609
▁चीनी	-9610
▁बम्ब	-9611
▁बादल	-9612
▁यिनि	-9613
▁विलय	-9614
▁उप्रे	-9615
▁झन्डै	-9616
▁परिमाण	-9617
▁लोखर्क	-9618
▁विकिरण	-9619
▁अपभ्रंश	-9620
▁उज्यालो	-9621
▁उपचारको	-9622
▁पार्श्व	-9623
▁ब्वाँसो	-9624
▁युरोपको	-9625
▁रेकर्डिङ	-9626
▁संस्थामा	-9627
०८	-9628
दथे	-9629
भरण	-9630
वाइ	-9631
िलो	-9632
▁खर	-9633
▁सप	-9634
न्सन	-9635
र्यो	-9636
हिरो	-9637
▁कोख	-9638
▁गोठ	-9639
▁नाप	-9640
▁बीर	-9641
▁बैक	-9642
▁मास	-9643
▁यान	-9644
▁रोम	-9645
▁शंख	-9646
▁सुप	-9647
▁हैस	-9648
▁खप्त	-9649
▁चोरी	-9650
▁नाम्	-9651
▁पदको	-9652
▁लिभर	-9653
▁सवार	-9654
▁सुगा	-9655
▁दुश्म	-9656
▁बिश्व	-9657
▁मनोरम	-9658
▁रिलिज	-9659
▁विभेद	-9660
▁विषेश	-9661
▁अहिंसा	-9662
▁आकाशमा	-9663
▁कृष्णा	-9664
▁राजपूत	-9665
▁सम्मका	-9666
▁सिमसार	-9667
▁आगन्तुक	-9668
▁पहिलेको	-9669
▁समूहलाई	-9670
▁बराबरीमा	-9671
▁बसाइँसराइ	-9672
▁बाहुल्यता	-9673
▁शृङ्खलाको	-9674
▁अर्जेन्टिना	-9675
गृह	-9676
ट्स	-9677
मिस	-9678
रिङ	-9679
ुला	-9680
्र्	-9681
▁नह	-9682
▁९२	-9683
चर्स	-9684
मान्	-9685
यकको	-9686
▁गुट	-9687
▁थाह	-9688
▁बिज	-9689
▁वचन	-9690
न्धित	-9691
ोत्तर	-9692
▁कालु	-9693
▁चण्ड	-9694
▁छोरो	-9695
▁नारद	-9696
▁मानस	-9697
▁सुका	-9698
▁२०७७	-9699
क्षीको	-9700
▁कामना	-9701
▁गरिनु	-9702
▁देवास	-9703
▁नदीले	-9704
▁निकास	-9705
▁पोष्ट	-9706
▁फोक्स	-9707
▁भीष्म	-9708
▁अब्दुल	-9709
▁अवधिको	-9710
▁दाहिने	-9711
▁दिवसको	-9712
▁बराबरी	-9713
▁मङ्गोल	-9714
▁माउन्ट	-9715
▁विनिमय	-9716
▁स्थलको	-9717
▁अन्वेषण	-9718
▁उहाँलाई	-9719
▁कालदेखि	-9720
▁गोल्डेन	-9721
▁समितिहरू	-9722
▁आत्मसमर्पण	-9723
०७	-9724
५३	-9725
▁ः	-9726
ँगो	-9727
दित	-9728
धमा	-9729
भिन	-9730
लान	-9731
विड	-9732
▁नच	-9733
कुरा	-9734
चर्च	-9735
बरको	-9736
स्रा	-9737
▁भाज	-9738
▁माह	-9739
राजको	-9740
ियानो	-9741
▁क्रे	-9742
▁गठित	-9743
▁गरिब	-9744
▁दिगो	-9745
▁निरु	-9746
▁पठार	-9747
▁माहा	-9748
▁रहेछ	-9749
▁साउथ	-9750
▁साढे	-9751
▁सुदृ	-9752
क्साइड	-9753
▁एप्पल	-9754
▁गद्दी	-9755
▁उल्लङ्	-9756
▁क्याथर	-9757
▁बिक्रम	-9758
▁मिलेको	-9759
▁व्यापी	-9760
▁सुनौलो	-9761
▁पछिल्ला	-9762
▁विस्फोट	-9763
▁समितिमा	-9764
▁सिमेन्ट	-9765
▁अवस्थाको	-9766
▁जर्मनीमा	-9767
▁प्रहरीले	-9768
▁शिवलिङ्ग	-9769
▁चट्टोग्राम	-9770
▁महानिरीक्षक	-9771
५९	-9772
कोर	-9773
गेर	-9774
दोष	-9775
िएफ	-9776
ौडा	-9777
▁अख	-9778
तिका	-9779
▁असह	-9780
▁उति	-9781
▁ढाक	-9782
ङ्गको	-9783
▁अस्थ	-9784
▁आराम	-9785
▁ईसाई	-9786
▁खगोल	-9787
▁पोषण	-9788
▁बोका	-9789
▁भुइँ	-9790
▁अथर्व	-9791
▁अपमान	-9792
▁बनेपा	-9793
▁भेट्न	-9794
▁विहार	-9795
कालदेखि	-9796
▁अनुगमन	-9797
▁आयुक्त	-9798
▁पाँचौँ	-9799
▁फर्केर	-9800
▁उपनिषद्	-9801
▁क्लबलाई	-9802
▁ब्राण्ड	-9803
▁क्याथरिन	-9804
▁नेपालबाट	-9805
▁रेकर्ड्स	-9806
▁वातावरणमा	-9807
▁हुनुभन्दा	-9808
जरी	-9809
देल	-9810
वेल	-9811
िके	-9812
▁८६	-9813
ंत्र	-9814
गाली	-9815
न्जा	-9816
लीका	-9817
▁अमे	-9818
▁कृत	-9819
▁ताज	-9820
▁भत्	-9821
▁शव्	-9822
त्तीस	-9823
बाजार	-9824
ेरोजग	-9825
▁छँदा	-9826
▁टावर	-9827
▁ताना	-9828
▁थिईन	-9829
▁पद्य	-9830
▁१९२३	-9831
▁२०४२	-9832
म्बरको	-9833
▁अन्या	-9834
▁उपाधी	-9835
▁छाडेर	-9836
▁बनारस	-9837
▁महिमा	-9838
▁मेसिन	-9839
▁रसुवा	-9840
▁रूसको	-9841
इन्थ्यो	-9842
▁आराधना	-9843
▁कुराका	-9844
▁गिर्जा	-9845
▁पुच्छर	-9846
▁बाख्रा	-9847
▁मलयालम	-9848
▁विधेयक	-9849
▁हिमनदी	-9850
▁अमरसिंह	-9851
▁कृत्रिम	-9852
▁जनयुद्ध	-9853
▁पात्रको	-9854
▁विषयलाई	-9855
▁सदस्यमा	-9856
▁स्वयम्भ	-9857
▁दिनहरूमा	-9858
▁प्रहरीको	-9859
▁बेलायतमा	-9860
▁बेल्जियम	-9861
▁विकासशील	-9862
▁शास्त्री	-9863
▁अक्टोबरमा	-9864
▁सम्पदालाई	-9865
▁नोभेम्बरमा	-9866
तुन	-9867
ेटर	-9868
▁खट	-9869
क्को	-9870
न्दो	-9871
प्या	-9872
संगै	-9873
हिला	-9874
▁केप	-9875
▁गाइ	-9876
▁पठन	-9877
▁मित	-9878
▁रुच	-9879
▁विच	-9880
▁१०८	-9881
देवले	-9882
नासाथ	-9883
▁अकबर	-9884
▁अपरि	-9885
▁चाँप	-9886
▁पठाए	-9887
▁भुवन	-9888
▁शिरो	-9889
▁१९३८	-9890
▁२०४५	-9891
▁अजिमा	-9892
▁दुर्व	-9893
▁नियमन	-9894
▁पित्त	-9895
हरूदेखि	-9896
▁उठाउने	-9897
▁चिन्तन	-9898
▁तर्फको	-9899
▁इन्द्रा	-9900
▁गर्थ्यो	-9901
▁गोलाकार	-9902
▁सत्तामा	-9903
▁स्वीकृत	-9904
▁अनुसारको	-9905
▁गोलरक्षक	-9906
▁त्रिपाठी	-9907
▁परापूर्व	-9908
▁सहरहरूमा	-9909
▁अभिनेताको	-9910
▁अवस्थालाई	-9911
▁गर्नुपर्दछ	-9912
▁बालबालिकाको	-9913
▁राष्ट्रसङ्घ	-9914
ंब	-9915
टीय	-9916
पाइ	-9917
भरा	-9918
िएल	-9919
▁उँ	-9920
निधि	-9921
निने	-9922
▁रेफ	-9923
▁सरह	-9924
भाविक	-9925
▁अंशु	-9926
▁गोलो	-9927
▁दसैँ	-9928
▁नागा	-9929
▁मुकु	-9930
▁मौरी	-9931
▁राजि	-9932
▁शहीद	-9933
शालाको	-9934
▁अदुवा	-9935
▁आयोजन	-9936
▁आलसको	-9937
▁भाजपा	-9938
▁सरुवा	-9939
▁भूमिगत	-9940
▁लाग्दा	-9941
▁लेप्चा	-9942
▁शनिबार	-9943
▁सुबिधा	-9944
▁स्क्वा	-9945
▁चित्रित	-9946
▁ट्रान्स	-9947
▁बेङ्क्स	-9948
▁मस्यौदा	-9949
▁लिच्छवी	-9950
▁कहिलेकाँ	-9951
▁गरिसकेकी	-9952
▁त्रिपुरा	-9953
▁मजदुरीमा	-9954
▁युरोपियन	-9955
▁वस्तुहरू	-9956
▁सुविधामा	-9957
▁स्वस्थ्य	-9958
▁परम्परामा	-9959
▁नियन्त्रित	-9960
▁महाराष्ट्रको	-9961
▁गाउँपालिकालाई	-9962
कू	-9963
फन	-9964
५४	-9965
लाप	-9966
ाल्	-9967
▁वध	-9968
पाडा	-9969
मीमा	-9970
वामा	-9971
ोनिक	-9972
▁कठि	-9973
▁काइ	-9974
▁हिल	-9975
न्तिक	-9976
ल्सको	-9977
▁गिरा	-9978
▁नाला	-9979
▁बेग्	-9980
▁रुक्	-9981
▁सामस	-9982
▁सुन्	-9983
▁हाना	-9984
▁२०३४	-9985
▁२०३८	-9986
णात्मक	-9987
दास्पद	-9988
▁उल्ले	-9989
▁गोलको	-9990
▁राहुल	-9991
▁सन्तु	-9992
▁हाँगा	-9993
▁आख्यान	-9994
▁कोठामा	-9995
▁गुलियो	-9996
▁तापमान	-9997
▁तिवारी	-9998
▁पानीले	-9999
▁रेग्मी	-10000
▁सङ्घमा	-10001
▁हजारौँ	-10002
▁हराएको	-10003
▁अध्यापक	-10004
▁कवितामा	-10005
▁डेमोक्र	-10006
▁देउराली	-10007
▁पठाइएको	-10008
▁पोखरीको	-10009
▁बुझाउँछ	-10010
▁हुनेछन्	-10011
▁दस्तावेज	-10012
▁परिवारले	-10013
▁मुम्बईमा	-10014
▁राजाहरूले	-10015
▁शताब्दीका	-10016
मण	-10017
सुर	-10018
िणी	-10019
ेसर	-10020
इनको	-10021
ढोका	-10022
ल्नु	-10023
▁...	-10024
▁अब्	-10025
▁गगन	-10026
▁गहन	-10027
▁छवि	-10028
▁तोप	-10029
▁सता	-10030
न्नाथ	-10031
पछिका	-10032
रसिंह	-10033
▁अलिक	-10034
▁ओमान	-10035
▁केशव	-10036
▁गाउन	-10037
▁मुना	-10038
▁रद्द	-10039
▁शर्त	-10040
▁सर्त	-10041
▁हर्ट	-10042
▁१९१९	-10043
▁२०२५	-10044
▁२०३५	-10045
▁२०३६	-10046
कुल्ला	-10047
िसकेको	-10048
▁उन्नत	-10049
▁घन्टा	-10050
▁दैत्य	-10051
▁प्वाँ	-10052
▁बिग्र	-10053
▁राख्छ	-10054
▁शिक्ष	-10055
▁श्वेत	-10056
▁समाना	-10057
प्रतिको	-10058
▁आश्विन	-10059
▁कञ्चनज	-10060
▁देवराज	-10061
▁देहराद	-10062
▁पहेंलो	-10063
▁ठाउँलाई	-10064
▁प्राकृत	-10065
▁हत्याको	-10066
▁यजुर्वेद	-10067
▁महिनावारी	-10068
▁विज्ञानमा	-10069
▁नेपालीहरूको	-10070
▁बहुराष्ट्रिय	-10071
ओस	-10072
ंकन	-10073
तना	-10074
▁गन	-10075
▁तौ	-10076
गुडी	-10077
ज्जा	-10078
तारी	-10079
न्नो	-10080
लिपी	-10081
लिया	-10082
▁खाँ	-10083
▁जिर	-10084
▁मदि	-10085
वासमा	-10086
ियमको	-10087
▁इन्ट	-10088
▁कन्स	-10089
▁पुरु	-10090
▁बढ्छ	-10091
▁बापत	-10092
▁ब्ला	-10093
▁मानी	-10094
▁साइन	-10095
▁हिरो	-10096
सकेपछि	-10097
▁आफैले	-10098
▁निहित	-10099
▁पराजय	-10100
▁मर्मत	-10101
▁मूलका	-10102
▁सार्क	-10103
▁आत्रेय	-10104
▁उद्यमी	-10105
▁गाउँले	-10106
▁पर्दछन	-10107
▁मधुमेह	-10108
▁वशिष्ठ	-10109
▁सीमामा	-10110
▁कमाण्डर	-10111
▁चर्चामा	-10112
▁त्रिपुर	-10113
▁प्रोफाइ	-10114
▁शब्दलाई	-10115
▁पदयात्रा	-10116
▁प्रबन्धक	-10117
▁फोटोग्रा	-10118
▁परिवारलाई	-10119
▁सिद्धार्थ	-10120
▁कार्यालयको	-10121
▁दुर्घटनामा	-10122
▁राज्यहरूको	-10123
▁शल्यक्रिया	-10124
▁फेब्रुअरीमा	-10125
ील	-10126
ुख	-10127
किन	-10128
खेर	-10129
नाश	-10130
परक	-10131
बले	-10132
लाय	-10133
चन्द	-10134
दियो	-10135
बुबा	-10136
श्मा	-10137
▁जेस	-10138
▁पुण	-10139
▁बरु	-10140
▁बाम	-10141
▁सेट	-10142
मुक्त	-10143
र्याल	-10144
▁कपमा	-10145
▁चापा	-10146
▁दाँत	-10147
▁याउन	-10148
▁श्रु	-10149
▁हानी	-10150
▁टिकटक	-10151
▁विराज	-10152
▁विवेक	-10153
▁शिर्ष	-10154
▁सूचका	-10155
▁कानूनी	-10156
▁क्याले	-10157
▁डेब्यु	-10158
▁त्रिवे	-10159
▁बेरोजग	-10160
▁महावीर	-10161
▁राख्दै	-10162
▁जनवरीमा	-10163
▁पुगेपछि	-10164
▁बनाईएको	-10165
▁लगाइन्छ	-10166
▁विश्लेष	-10167
▁सूचिकृत	-10168
▁आयोजनाले	-10169
▁वायुसेवा	-10170
▁संस्थागत	-10171
▁सम्झनामा	-10172
▁एक्सचेन्ज	-10173
▁जिल्लाबाट	-10174
▁स्विफ्टको	-10175
▁थाइल्याण्ड	-10176
पृ	-10177
यौ	-10178
हक	-10179
५६	-10180
पेट	-10181
फाँ	-10182
भको	-10183
▁आण	-10184
ध्वज	-10185
पाने	-10186
सनमा	-10187
ेटिङ	-10188
▁अणु	-10189
▁गुर	-10190
▁घिउ	-10191
▁तले	-10192
▁थ्र	-10193
▁पिछ	-10194
▁विस	-10195
▁सौर	-10196
▁६००	-10197
जीलाई	-10198
प्रेर	-10199
▁कमला	-10200
▁हालै	-10201
▁कैलाश	-10202
▁जगतमा	-10203
▁जिन्द	-10204
▁प्रशं	-10205
▁बिचको	-10206
▁भएपछी	-10207
▁हरूले	-10208
▁अनुदान	-10209
▁गृहस्थ	-10210
▁चौतारा	-10211
▁पाएपछि	-10212
▁प्रष्ट	-10213
▁संज्ञा	-10214
........	-10215
▁उत्तिकै	-10216
▁कृष्णले	-10217
▁जनशक्ति	-10218
▁ठाउँबाट	-10219
▁प्रवर्त	-10220
▁अध्ययनको	-10221
▁अनुष्ठान	-10222
▁उद्योगको	-10223
▁ग्रन्थमा	-10224
▁महादेवको	-10225
▁रामकृष्ण	-10226
▁विश्वकोश	-10227
▁समस्याको	-10228
▁बाबासाहेब	-10229
▁बियोन्सेले	-10230
▁क्षेत्रफलको	-10231
▁लेखापरीक्षण	-10232
▁विद्यालयहरू	-10233
८१	-10234
स्स	-10235
▁७४	-10236
क्री	-10237
गंगा	-10238
टनको	-10239
वाना	-10240
▁चोल	-10241
▁दाह	-10242
▁वाज	-10243
ङ्ख्य	-10244
पतिको	-10245
पुरुष	-10246
▁अठार	-10247
▁नेयो	-10248
▁रोचक	-10249
▁वाग्	-10250
▁शोषण	-10251
▁हाते	-10252
▁१९४४	-10253
क्रममा	-10254
मन्दिर	-10255
▁आफुले	-10256
▁कश्यप	-10257
▁जोसेफ	-10258
▁त्यसो	-10259
▁देखिन	-10260
▁पढ्ने	-10261
▁पानास	-10262
▁रहँदै	-10263
▁वरदान	-10264
▁सतहमा	-10265
▁सम्पु	-10266
▁सहारा	-10267
▁उमेरका	-10268
▁कान्छो	-10269
▁मास्को	-10270
▁विपरित	-10271
▁संगठित	-10272
▁सुवेदी	-10273
▁चार्ल्स	-10274
▁मानन्धर	-10275
▁रामचरित	-10276
▁सदस्यीय	-10277
▁उत्सर्जन	-10278
▁स्तनधारी	-10279
▁व्यापारमा	-10280
▁संवेदनशील	-10281
▁इन्टरनेसनल	-10282
▁मानिन्थ्यो	-10283
▁प्राधिकरणलाई	-10284
ँक	-10285
करी	-10286
काे	-10287
गार	-10288
बंध	-10289
भेन	-10290
सिं	-10291
ेकै	-10292
▁उज	-10293
▁तद	-10294
चीमा	-10295
रलाई	-10296
श्ले	-10297
हानी	-10298
▁आइत	-10299
▁चुर	-10300
▁जनस	-10301
▁जिन	-10302
▁ढाड	-10303
▁भीड	-10304
▁शता	-10305
▁शेष	-10306
ढुंगा	-10307
दाबाद	-10308
िमण्ड	-10309
▁औषधी	-10310
▁नवौँ	-10311
▁लगेर	-10312
▁१९३९	-10313
▁२०३३	-10314
▁असमान	-10315
▁कहानी	-10316
▁च्याउ	-10317
▁जवाहर	-10318
▁पाश्च	-10319
▁पुतली	-10320
▁बृहत्	-10321
▁लागेर	-10322
▁स्टेड	-10323
▁गरिनेछ	-10324
▁नगरेको	-10325
▁राम्रा	-10326
▁वास्तु	-10327
▁उप्रेती	-10328
▁निकाल्न	-10329
▁परिकल्प	-10330
▁बाबुराम	-10331
▁भुक्तान	-10332
▁राखिएका	-10333
▁सारिएको	-10334
▁उपकरणहरू	-10335
▁चित्रकार	-10336
▁मिल्दोजु	-10337
▁प्रादेशिक	-10338
▁शास्त्रमा	-10339
▁कहिलेकाँही	-10340
▁विमानस्थलको	-10341
▁प्रतिनिधिसभा	-10342
▁युनेस्कोद्वारा	-10343
झी	-10344
भिच	-10345
भुत	-10346
मास	-10347
ंद्र	-10348
कारक	-10349
क्खा	-10350
घरको	-10351
मलाई	-10352
र्तन	-10353
सतमा	-10354
▁अप्	-10355
▁आलो	-10356
▁कोच	-10357
▁बखत	-10358
▁मरे	-10359
▁शपथ	-10360
▁सहन	-10361
▁इच्छ	-10362
▁कमजो	-10363
▁छेउछ	-10364
▁फलको	-10365
▁मष्ट	-10366
▁म्यू	-10367
▁हेतु	-10368
चर्चित	-10369
पत्रको	-10370
स्तानी	-10371
▁जंगली	-10372
▁तालमा	-10373
▁नमूना	-10374
▁नरिवल	-10375
▁पाएकी	-10376
▁बद्री	-10377
▁वाराण	-10378
▁शङ्कर	-10379
▁सडकमा	-10380
्याङ्दी	-10381
▁दिउँसो	-10382
▁देशलाई	-10383
▁पूजारी	-10384
▁प्रकरण	-10385
▁मानेका	-10386
▁साइप्र	-10387
क्रियाको	-10388
▁आश्रममा	-10389
▁गोत्रीय	-10390
▁घण्टाको	-10391
▁प्रकाशक	-10392
▁मुलुकको	-10393
▁स्कूलमा	-10394
▁उल्लेख्य	-10395
▁किनारामा	-10396
▁पार्टीमा	-10397
▁मान्छेको	-10398
▁जनआन्दोलन	-10399
▁उद्देश्यका	-10400
▁गणतन्त्रको	-10401
▁विद्यालयबाट	-10402
▁समितिद्वारा	-10403
▁मिल्दोजुल्दो	-10404
▁विद्यार्थीहरूको	-10405
८७	-10406
ंडा	-10407
ंसी	-10408
न्ह	-10409
ोपा	-10410
▁खन	-10411
▁नल	-10412
▁००	-10413
ख्यो	-10414
ड्दै	-10415
न्दै	-10416
परको	-10417
बासी	-10418
म्भव	-10419
र्मो	-10420
ल्लभ	-10421
▁उपस	-10422
▁प्ल	-10423
▁लुई	-10424
▁लेन	-10425
▁सदन	-10426
क्षमा	-10427
▁अहमद	-10428
▁एकाई	-10429
▁औजार	-10430
▁कोमल	-10431
▁ज्ये	-10432
▁टिका	-10433
▁टुटी	-10434
▁नाता	-10435
▁पढाई	-10436
▁पुरो	-10437
▁मर्स	-10438
▁मिलन	-10439
▁रूपा	-10440
▁लीला	-10441
▁वासु	-10442
▁ह्यु	-10443
तावादी	-10444
त्तिकै	-10445
▁अवतरण	-10446
▁जेलमा	-10447
▁नियमा	-10448
▁पट्टी	-10449
▁बन्दछ	-10450
▁बन्नु	-10451
▁बेइली	-10452
▁बोल्न	-10453
▁रजवार	-10454
▁रूसमा	-10455
स्तानमा	-10456
▁कोशिका	-10457
▁क्युबा	-10458
▁ग्लोबल	-10459
▁छालाको	-10460
▁तुल्या	-10461
▁देखाउन	-10462
▁निगमको	-10463
▁सेनानी	-10464
▁भगवतीको	-10465
▁भोजपुरी	-10466
▁श्रीराम	-10467
▁अनुवादित	-10468
▁सम्पुर्ण	-10469
▁हिन्दीमा	-10470
▁अमेरिकाले	-10471
▁परम्पराको	-10472
▁मूर्तिहरू	-10473
▁सङ्ग्रहित	-10474
▁समुन्द्री	-10475
▁सिङ्गापुर	-10476
▁किम्बदन्ती	-10477
▁दीर्घकालीन	-10478
▁परिवर्तनको	-10479
▁मनोविज्ञान	-10480
▁विद्वानहरूले	-10481
ोस	-10482
जेर	-10483
पाठ	-10484
पेर	-10485
ोधन	-10486
▁ओम	-10487
▁शृ	-10488
▁८७	-10489
खाला	-10490
▁आलम	-10491
▁तपा	-10492
▁बली	-10493
▁लम्	-10494
वासको	-10495
ालयमा	-10496
▁आजाद	-10497
▁कृपा	-10498
▁गुना	-10499
▁चाभे	-10500
▁तुला	-10501
▁लुका	-10502
▁साल्	-10503
▁१९४१	-10504
▁झुण्ड	-10505
▁बेसार	-10506
▁वस्ती	-10507
▁साबित	-10508
▁स्टाल	-10509
▁हस्ति	-10510
▁आइपुग्	-10511
▁चाहिने	-10512
▁टिमबाट	-10513
▁धारोको	-10514
▁वर्णित	-10515
▁गाविसका	-10516
▁त्यसबाट	-10517
▁प्रिन्स	-10518
र्नामेन्ट	-10519
▁निस्कन्छ	-10520
▁प्रकाशको	-10521
▁अधिकारीको	-10522
▁किंवदन्ती	-10523
▁क्षेत्रले	-10524
▁गैरसरकारी	-10525
▁पदाधिकारी	-10526
▁मन्त्रीको	-10527
▁रामचन्द्र	-10528
▁विस्तारित	-10529
▁उपन्यासहरू	-10530
▁राजमार्गको	-10531
▁विवादास्पद	-10532
अल	-10533
िद	-10534
चोद	-10535
दुल	-10536
निश	-10537
पती	-10538
टीमा	-10539
भैरव	-10540
लेमा	-10541
सिलो	-10542
्युत	-10543
▁कोत	-10544
▁मनी	-10545
हुँदै	-10546
िसम्म	-10547
▁आपसी	-10548
▁चुना	-10549
▁टिकट	-10550
▁ताली	-10551
▁धागो	-10552
▁मेयर	-10553
▁लिया	-10554
▁लेबन	-10555
▁वकाल	-10556
▁समथर	-10557
▁सिलि	-10558
ङ्ग्रह	-10559
▁इटाले	-10560
▁द्रोण	-10561
▁ब्रुक	-10562
▁हुनको	-10563
▁इञ्जिन	-10564
▁ग्रहको	-10565
▁छत्तीस	-10566
▁देखिनै	-10567
▁पात्रो	-10568
▁प्रतिक	-10569
▁अर्काको	-10570
▁जनाउँदछ	-10571
▁प्रचण्ड	-10572
▁गिर्जाघर	-10573
▁सञ्जालको	-10574
▁ओलम्पिकमा	-10575
▁खेलाडीलाई	-10576
▁तीर्थस्थल	-10577
▁मुख्तियार	-10578
▁राजाहरूको	-10579
▁उपमहाद्वीप	-10580
▁निर्देशनमा	-10581
▁म्याकमेनले	-10582
▁प्रोत्साहित	-10583
भन	-10584
ँती	-10585
कटि	-10586
पुछ	-10587
▁लू	-10588
▁शत	-10589
▁८३	-10590
उनका	-10591
र्जु	-10592
लागी	-10593
वाहक	-10594
▁उही	-10595
▁चाउ	-10596
▁चोर	-10597
▁थप्	-10598
▁पुष	-10599
▁लीग	-10600
▁सीप	-10601
भक्ति	-10602
र्मोन	-10603
वक्ता	-10604
▁अम्ल	-10605
▁एकको	-10606
▁कमाई	-10607
▁खाएर	-10608
▁चाँग	-10609
▁जुका	-10610
▁जेठी	-10611
▁तीनै	-10612
▁दत्त	-10613
▁न्यौ	-10614
▁राइट	-10615
▁रीति	-10616
▁रैका	-10617
▁सुँग	-10618
कात्मक	-10619
▁गएपछि	-10620
▁नेत्र	-10621
▁नोक्स	-10622
▁बन्धु	-10623
▁एसोसिए	-10624
▁कर्पोर	-10625
▁नियोजन	-10626
▁पहाडमा	-10627
▁पूजाको	-10628
▁फर्किए	-10629
▁बजाउने	-10630
▁मुर्ति	-10631
▁रेहेको	-10632
▁सौचालय	-10633
▁कार्यलय	-10634
▁जगन्नाथ	-10635
▁पराजुली	-10636
▁पेट्रोल	-10637
▁बच्चाको	-10638
▁स्वयंसे	-10639
▁हानाहान	-10640
▁गर्दैनन्	-10641
▁निःशुल्क	-10642
▁बित्तिकै	-10643
▁हिमालयको	-10644
▁अंशुवर्मा	-10645
▁न्युयोर्क	-10646
▁रामचरितमान	-10647
०१	-10648
५७	-10649
बमा	-10650
वटै	-10651
साम	-10652
ेता	-10653
▁जू	-10654
▁०६	-10655
जङ्ग	-10656
ड्का	-10657
पाली	-10658
भएका	-10659
र्के	-10660
ल्दा	-10661
वर्स	-10662
हर्ज	-10663
िसँग	-10664
▁एरि	-10665
▁ओपन	-10666
▁खतर	-10667
▁चौँ	-10668
▁ठाउ	-10669
▁दुव	-10670
▁बेत	-10671
▁बेन	-10672
▁मही	-10673
▁यहू	-10674
▁हैं	-10675
▁७००	-10676
ग्याल	-10677
तालको	-10678
मारको	-10679
र्ध्व	-10680
िटरमा	-10681
▁खेति	-10682
▁चेता	-10683
▁ड्रा	-10684
▁द्वा	-10685
▁निलो	-10686
▁बिरू	-10687
नेश्वर	-10688
प्रधान	-10689
स्वरुप	-10690
▁आणविक	-10691
▁आफ्नु	-10692
▁गीतका	-10693
▁डलरमा	-10694
▁डिभास	-10695
▁बुटवल	-10696
▁स्टाइ	-10697
▁हेनरी	-10698
▁खाद्या	-10699
▁छोरीको	-10700
▁नायिका	-10701
▁रोगबाट	-10702
▁सिजनमा	-10703
▁कृष्णको	-10704
▁क्यारिब	-10705
▁भाषाबाट	-10706
▁मार्गमा	-10707
▁हुनुभयो	-10708
▁उत्पादित	-10709
▁कविताहरू	-10710
▁चुम्बकीय	-10711
▁जलप्रवाह	-10712
▁परमात्मा	-10713
▁ब्याट्री	-10714
▁स्विडेनी	-10715
▁रुपन्देही	-10716
▁अध्यक्षतामा	-10717
▁कार्यालयहरू	-10718
▁सदरमुकामबाट	-10719
▁राष्ट्रहरूको	-10720
ँडी	-10721
ग्य	-10722
मरी	-10723
यौँ	-10724
िसे	-10725
ुका	-10726
▁एश	-10727
▁गृ	-10728
थियो	-10729
▁इति	-10730
▁ओली	-10731
▁किर	-10732
▁मील	-10733
चालित	-10734
धुनिक	-10735
र्भिक	-10736
हारिक	-10737
▁अनिय	-10738
▁आँधी	-10739
▁तटीय	-10740
▁दिसा	-10741
▁बज्र	-10742
▁ब्रज	-10743
▁मनको	-10744
▁मांस	-10745
▁वाचा	-10746
▁विमल	-10747
▁१९०३	-10748
▁२०४३	-10749
पंक्ति	-10750
ामित्र	-10751
िसकेका	-10752
▁आहमेद	-10753
▁चीनले	-10754
▁नगरमा	-10755
▁भनियो	-10756
▁मुखमा	-10757
▁रेजिम	-10758
▁ज्यादा	-10759
▁दिएपछि	-10760
▁पठाउने	-10761
▁सीमाना	-10762
▁स्कन्द	-10763
▁अनुभूति	-10764
▁गर्थिन्	-10765
▁ज्येष्ठ	-10766
▁निजामती	-10767
▁मरुभूमि	-10768
▁मान्छन्	-10769
▁भूतपूर्व	-10770
▁सरकारबाट	-10771
▁बार्सिलोना	-10772
▁स्वायत्तता	-10773
उछ	-10774
िण	-10775
डाम	-10776
वाज	-10777
शित	-10778
ेलि	-10779
▁सच	-10780
▁०१	-10781
गामी	-10782
जीका	-10783
टरको	-10784
ष्टी	-10785
स्सी	-10786
ाउदै	-10787
ेनन्	-10788
▁एपी	-10789
▁ओडि	-10790
▁किट	-10791
▁दफा	-10792
▁नान	-10793
▁पौड	-10794
ञ्जना	-10795
भिषेक	-10796
▁उड्ड	-10797
▁ढिलो	-10798
▁दानव	-10799
▁नेवा	-10800
▁बढेर	-10801
▁सधैँ	-10802
▁सेता	-10803
▁स्मृ	-10804
▁१९०५	-10805
▁अगाथा	-10806
▁आँकडा	-10807
▁आलोचक	-10808
▁कुलुङ	-10809
▁जनाले	-10810
▁जयपुर	-10811
▁झ्याल	-10812
▁न्युन	-10813
▁यमुना	-10814
▁संकेत	-10815
▁सत्या	-10816
▁सांगी	-10817
पङ्क्ति	-10818
▁कवितास	-10819
▁बैठकमा	-10820
▁भूमिमा	-10821
▁मिल्यो	-10822
▁संस्कृ	-10823
▁सामवेद	-10824
▁हराएका	-10825
▁हस्तान	-10826
▁हुम्ला	-10827
▁आसपासका	-10828
▁इजरायली	-10829
▁वर्षअघि	-10830
▁समाजवाद	-10831
▁क्यानाडा	-10832
▁निम्त्या	-10833
▁निर्माणा	-10834
▁प्रतिलिपी	-10835
▁काठमाडौँबाट	-10836
▁मैत्रीपूर्ण	-10837
▁श्रीलङ्कामा	-10838
▁राष्ट्रहरूमा	-10839
अन	-10840
धक	-10841
उडा	-10842
टिभ	-10843
तला	-10844
तेर	-10845
बिक	-10846
मोन	-10847
ैनी	-10848
▁उध	-10849
▁खड	-10850
▁९३	-10851
पन्न	-10852
भाषी	-10853
▁धृत	-10854
▁नरम	-10855
▁बडी	-10856
▁बहस	-10857
▁रिच	-10858
▁लाह	-10859
▁सला	-10860
खुट्ट	-10861
त्म्य	-10862
ियर्स	-10863
▁आषाढ	-10864
▁चिम्	-10865
▁पिटर	-10866
▁लभ्स	-10867
▁लसुन	-10868
▁लिंग	-10869
▁विवे	-10870
▁हरित	-10871
▁१८००	-10872
▁अगुवा	-10873
▁इरानी	-10874
▁ऋषिले	-10875
▁गाइने	-10876
▁जरुरी	-10877
▁प्रबल	-10878
▁बढावा	-10879
▁मथुरा	-10880
▁मर्या	-10881
▁रामले	-10882
▁विकार	-10883
▁शिल्प	-10884
▁आरोपमा	-10885
▁खेललाई	-10886
▁पाश्चा	-10887
▁बर्ड्स	-10888
▁मञ्चमा	-10889
▁राणाको	-10890
▁लङ्गुर	-10891
▁लेखनाथ	-10892
▁इटालेली	-10893
▁पर्वतको	-10894
▁बिताएका	-10895
▁मार्गको	-10896
▁नेपोलियन	-10897
▁मामिलामा	-10898
▁सम्मानमा	-10899
▁पानासोनिक	-10900
▁लिम्बुवान	-10901
▁संखुवासभा	-10902
▁हस्तानतरण	-10903
▁अधिराज्यमा	-10904
▁एम्ब्रोजले	-10905
▁लोकविश्वास	-10906
▁सम्पत्तिको	-10907
▁सिद्धान्तको	-10908
▁व्यक्तिहरूले	-10909
▁प्रजातन्त्रको	-10910
८४	-10911
९७	-10912
इडर	-10913
टेन	-10914
भले	-10915
रहे	-10916
वुड	-10917
साङ	-10918
▁कद	-10919
▁तक	-10920
गरको	-10921
तारो	-10922
पाटन	-10923
लगेट	-10924
िल्स	-10925
▁केन	-10926
▁जडि	-10927
▁धरो	-10928
▁विथ	-10929
दित्य	-10930
▁पादु	-10931
▁प्रह	-10932
▁मसला	-10933
▁सत्त	-10934
पालुवा	-10935
▁बाँदर	-10936
▁ल्याई	-10937
▁अनेकौँ	-10938
▁गिरावट	-10939
▁जमीनमा	-10940
▁ठेगाना	-10941
▁थानाको	-10942
▁दिनपछि	-10943
▁दीक्षा	-10944
▁धेरैले	-10945
▁प्राप्	-10946
▁भएसँगै	-10947
▁स्थलमा	-10948
▁हुनुका	-10949
▁कानुनको	-10950
▁गुप्तचर	-10951
▁जनावरको	-10952
▁द्रौपदी	-10953
▁बोल्छन्	-10954
▁विच्छेद	-10955
▁घरपालुवा	-10956
▁प्रयोगले	-10957
▁प्रोफाइल	-10958
▁महानगरीय	-10959
▁क्रिकेटको	-10960
▁निकालिएको	-10961
▁युट्युबमा	-10962
▁राजधानीको	-10963
▁विस्थापित	-10964
▁व्यापारको	-10965
▁प्रधानन्या	-10966
▁ब्रह्मपुत्र	-10967
ुत	-10968
९१	-10969
९२	-10970
नीत	-10971
िला	-10972
चक्र	-10973
मन्ड	-10974
र्दा	-10975
▁एम्	-10976
▁करे	-10977
▁चिस	-10978
▁जोर	-10979
▁बटा	-10980
▁सास	-10981
▁१३०	-10982
च्युट	-10983
▁जवान	-10984
▁ठाडो	-10985
▁दीपक	-10986
▁निमा	-10987
▁बदला	-10988
▁बराह	-10989
▁बुढी	-10990
▁विनो	-10991
मुक्ति	-10992
▁अवश्य	-10993
▁आर्यन	-10994
▁घाँसे	-10995
▁दिनका	-10996
▁देहाय	-10997
▁मूत्र	-10998
▁रिजाल	-10999
▁हलिउड	-11000
भित्रको	-11001
▁अङ्कित	-11002
▁नीतिको	-11003
▁प्वाँख	-11004
▁मालिका	-11005
▁राख्दछ	-11006
▁वाल्मी	-11007
▁विन्दु	-11008
▁सकिएको	-11009
▁सर्पको	-11010
▁ह्याभि	-11011
▁कलेजबाट	-11012
▁देखाउने	-11013
▁पक्षलाई	-11014
▁प्रयत्न	-11015
▁फिल्ममा	-11016
▁भेटिएको	-11017
▁मार्टिन	-11018
▁राजनिति	-11019
▁सेवालाई	-11020
▁इलाहाबाद	-11021
▁निरीक्षण	-11022
▁बियोन्से	-11023
▁खाद्यान्न	-11024
▁पत्रिकाले	-11025
▁सम्बन्धको	-11026
▁सिक्किममा	-11027
▁सुरेन्द्र	-11028
▁संक्रान्ति	-11029
येर	-11030
लोर	-11031
▁फू	-11032
▁८४	-11033
जपुर	-11034
ट्या	-11035
त्रो	-11036
न्दि	-11037
र्नल	-11038
हीको	-11039
ाराम	-11040
▁आपत	-11041
▁उका	-11042
▁थुम	-11043
▁बलु	-11044
▁भान	-11045
▁मुस	-11046
▁सीट	-11047
ङ्कार	-11048
र्फत्	-11049
ल्सले	-11050
ारण्य	-11051
▁अल्ट	-11052
▁एउटी	-11053
▁कागज	-11054
▁गिनी	-11055
▁चाहे	-11056
▁जनसा	-11057
▁बुल्	-11058
▁मोदी	-11059
▁रङको	-11060
▁१९३४	-11061
▁२०२६	-11062
▁२०४४	-11063
संस्था	-11064
स्ट्रो	-11065
▁आवस्य	-11066
▁घरबाट	-11067
▁चीनका	-11068
▁छरिएर	-11069
▁ट्रफी	-11070
▁फर्कि	-11071
▁भारती	-11072
▁मौखिक	-11073
▁लाखौं	-11074
▁विकाश	-11075
▁संयोग	-11076
▁स्टेट	-11077
▁कोखबाट	-11078
▁चेल्सी	-11079
▁टाइम्स	-11080
▁टेलिकम	-11081
▁पदोन्न	-11082
▁ब्रायन	-11083
▁भर्खरै	-11084
▁मेलामा	-11085
▁विशेषत	-11086
▁समाहित	-11087
▁सैद्धा	-11088
तापूर्वक	-11089
▁जन्मेको	-11090
▁ट्राफिक	-11091
▁प्रकृया	-11092
▁मातहतमा	-11093
▁आचार्यको	-11094
▁एप्पलगेट	-11095
▁जयप्रकाश	-11096
▁राजिनामा	-11097
▁राष्ट्रप	-11098
▁स्वर्गीय	-11099
▁सम्पर्कमा	-11100
▁टेलिभिजनमा	-11101
▁देवताहरूको	-11102
डम	-11103
घोष	-11104
डिओ	-11105
फिल	-11106
बेस	-11107
हिद	-11108
▁चत	-11109
ंखला	-11110
थामा	-11111
न्डि	-11112
मूलक	-11113
ोष्ण	-11114
▁कलश	-11115
▁घटक	-11116
▁छाउ	-11117
▁जडी	-11118
▁पेज	-11119
▁बचत	-11120
ञ्चित	-11121
देशीय	-11122
लकण्ठ	-11123
▁खुशी	-11124
▁चाँद	-11125
▁थोमस	-11126
▁देवि	-11127
▁बाल्	-11128
▁ब्लक	-11129
▁मिले	-11130
क्षणको	-11131
सम्ममा	-11132
स्तीमा	-11133
▁कलाको	-11134
▁गिद्ध	-11135
▁चौँथो	-11136
▁जितेर	-11137
▁द्रां	-11138
▁पछिका	-11139
▁पट्टि	-11140
▁पर्नु	-11141
▁युएफा	-11142
▁शिवरा	-11143
▁श्वास	-11144
▁सुदृढ	-11145
▁सेनले	-11146
▁चलाएका	-11147
▁जिम्बा	-11148
▁टोकियो	-11149
▁लाग्नु	-11150
▁लेखनमा	-11151
▁लेखिने	-11152
▁सभामुख	-11153
▁आक्रामक	-11154
▁जुलाईमा	-11155
▁दर्शनको	-11156
▁पशुपालन	-11157
▁भैसकेको	-11158
▁लिन्छन्	-11159
▁विभागीय	-11160
▁शिक्षित	-11161
▁निष्कासन	-11162
▁भारद्वाज	-11163
▁इजाजतपत्र	-11164
▁विद्रोहको	-11165
▁निर्देशकको	-11166
▁उपमहाद्वीपमा	-11167
जब	-11168
८३	-11169
डाइ	-11170
थाल	-11171
मरण	-11172
विन	-11173
त्से	-11174
न्धन	-11175
फिया	-11176
बुवा	-11177
राजा	-11178
▁अफ्	-11179
▁डेढ	-11180
▁डोट	-11181
▁धीम	-11182
▁फास	-11183
▁शरद	-11184
▁सति	-11185
कर्षण	-11186
कालका	-11187
घाटमा	-11188
त्वको	-11189
दथ्यो	-11190
दर्शी	-11191
रक्षा	-11192
▁अधिन	-11193
▁कुसु	-11194
▁कोले	-11195
▁क्षण	-11196
▁छोडे	-11197
▁जामे	-11198
▁नाका	-11199
▁फक्स	-11200
▁फोरम	-11201
▁बिरो	-11202
▁युएस	-11203
▁रम्ब	-11204
▁रहको	-11205
▁लुइस	-11206
▁अन्तत	-11207
▁क्रोध	-11208
▁खप्तड	-11209
▁खरानी	-11210
▁तुर्क	-11211
▁देशले	-11212
▁राइफल	-11213
▁ल्याए	-11214
▁वाहेक	-11215
▁समाधि	-11216
▁सर्ने	-11217
▁सावित	-11218
▁सिलसि	-11219
हरूमाथि	-11220
▁उदेश्य	-11221
▁चाहन्छ	-11222
▁छात्रा	-11223
▁ढाकामा	-11224
▁प्यारा	-11225
▁बताउनु	-11226
▁हेरचाह	-11227
▁नेताहरू	-11228
▁पर्वतमा	-11229
▁प्रोटिन	-11230
▁शब्दबाट	-11231
▁शर्माको	-11232
▁अभिलेखमा	-11233
▁कालिम्पो	-11234
▁पिक्चर्स	-11235
▁पुनर्गठन	-11236
▁पुरातत्व	-11237
▁संस्थाका	-11238
▁अधिकारीले	-11239
▁मृत्युपछि	-11240
▁मृत्युदण्ड	-11241
▁उत्तरपूर्वी	-11242
▁इङ्ल्यान्डको	-11243
▁राष्ट्रसंघको	-11244
▁कार्यक्रमहरूमा	-11245
▁क्यालिफोर्निया	-11246
५१	-11247
ठमा	-11248
ड्स	-11249
नेल	-11250
ारु	-11251
२००	-11252
▁एब	-11253
▁पस	-11254
▁व्	-11255
▁हौ	-11256
गलको	-11257
टोको	-11258
देखी	-11259
यरमा	-11260
र्यु	-11261
▁थिई	-11262
▁बान	-11263
▁लिब	-11264
▁सरा	-11265
▁ह्व	-11266
ताहरू	-11267
▁इराक	-11268
▁दुबई	-11269
▁बग्छ	-11270
▁मुगु	-11271
▁मोति	-11272
▁सहाय	-11273
▁सोनी	-11274
▁१९००	-11275
▁२०२७	-11276
िकीकरण	-11277
▁अत्रि	-11278
▁अरुणा	-11279
▁आजीवन	-11280
▁ऋषिको	-11281
▁कागती	-11282
▁टिममा	-11283
▁तन्तु	-11284
▁धरोहर	-11285
▁नेहरू	-11286
▁मार्श	-11287
▁विहान	-11288
▁खतरनाक	-11289
▁टिमहरू	-11290
▁नामहरू	-11291
▁प्रोजे	-11292
▁मैनाली	-11293
▁सम्झना	-11294
▁सुन्ने	-11295
▁अगस्टमा	-11296
▁इटालीको	-11297
▁गतेदेखि	-11298
▁पङ्क्ति	-11299
▁राख्छन्	-11300
▁मुक्तिका	-11301
▁पोल्यान्ड	-11302
▁श्रेष्ठको	-11303
▁कालान्तरमा	-11304
▁ब्याटम्यान	-11305
▁सम्प्रदायको	-11306
न्क	-11307
सिङ	-11308
स्र	-11309
िंग	-11310
▁इल	-11311
▁नउ	-11312
▁पक	-11313
▁प्	-11314
किरा	-11315
ज्ने	-11316
यानक	-11317
▁अजय	-11318
▁अद्	-11319
▁करण	-11320
▁झैँ	-11321
▁बुक	-11322
▁भैं	-11323
▁राह	-11324
▁वाण	-11325
▁वाद	-11326
लालाई	-11327
स्केट	-11328
▁उम्र	-11329
▁कहला	-11330
▁कोहि	-11331
▁दम्प	-11332
▁दायर	-11333
▁पचास	-11334
▁फाँट	-11335
▁मलिक	-11336
▁ल्हो	-11337
▁सारी	-11338
निर्वा	-11339
▁ईस्वी	-11340
▁कार्म	-11341
▁कौटिल	-11342
▁घुम्न	-11343
▁डोमेन	-11344
▁तपाईं	-11345
▁तेलको	-11346
▁दत्ता	-11347
▁धीमहि	-11348
▁पोशाक	-11349
▁ब्रम्	-11350
▁मुल्य	-11351
▁शिविर	-11352
▁अनुरुप	-11353
▁उत्परि	-11354
▁उर्ध्व	-11355
▁पुग्दछ	-11356
▁बालिका	-11357
▁वरपरका	-11358
▁कारवाही	-11359
▁घण्टामा	-11360
▁चेतावनी	-11361
▁तथ्यांक	-11362
▁नाइट्रो	-11363
▁पश्चिमा	-11364
▁पुरोहित	-11365
▁बिरूद्ध	-11366
▁ब्यापार	-11367
▁मनपर्ने	-11368
▁राजाहरू	-11369
▁अत्याचार	-11370
▁एकादशीको	-11371
▁काउन्सिल	-11372
▁क्रिस्टी	-11373
▁संस्कृतिमा	-11374
▁कुरुक्षेत्र	-11375
▁राजतन्त्रको	-11376
▁विद्यावारिधि	-11377
८६	-11378
थको	-11379
देउ	-11380
पिड	-11381
बाई	-11382
मुक	-11383
हले	-11384
क्कर	-11385
पनमा	-11386
पाका	-11387
पाटा	-11388
फ्लि	-11389
मञ्च	-11390
सनको	-11391
साइड	-11392
साले	-11393
▁उनै	-11394
▁दृढ	-11395
▁पङ्	-11396
▁रोल	-11397
▁वजन	-11398
▁सुम	-11399
▁हर्	-11400
खास्त	-11401
गङ्गा	-11402
न्जेल	-11403
श्वरी	-11404
▁एसएल	-11405
▁करीव	-11406
▁गेडा	-11407
▁ग्ला	-11408
▁चासो	-11409
▁पांच	-11410
▁पाथी	-11411
▁ब्ले	-11412
▁माना	-11413
▁राहत	-11414
▁स्लो	-11415
र्थीको	-11416
र्थ्यो	-11417
▁कट्टर	-11418
▁कर्ता	-11419
▁तैयार	-11420
▁निदान	-11421
▁निषेध	-11422
▁नेसनल	-11423
▁भयानक	-11424
▁लडेका	-11425
▁वकालत	-11426
▁वाद्य	-11427
▁कर्णेल	-11428
▁गराउँछ	-11429
▁गुप्ता	-11430
▁चेन्नई	-11431
▁पुत्री	-11432
▁प्रचोद	-11433
▁मास्टर	-11434
▁वर्गका	-11435
पश्चिममा	-11436
▁अलेक्सा	-11437
▁किसिमले	-11438
▁पदार्पण	-11439
▁रोलिन्स	-11440
▁वैवाहिक	-11441
▁गीतहरूको	-11442
▁प्रयासमा	-11443
▁शब्दावली	-11444
▁शीर्षकको	-11445
▁बहुचर्चित	-11446
▁राजपरिवार	-11447
▁राष्ट्रका	-11448
▁सुविधाहरू	-11449
▁अल्पसंख्यक	-11450
▁प्रतीकात्मक	-11451
▁प्रवेशद्वार	-11452
▁कलकारखानाहरू	-11453
▁विश्वयुद्धको	-11454
८२	-11455
टाइ	-11456
डोर	-11457
बीर	-11458
▁बब	-11459
▁९६	-11460
तीका	-11461
रहित	-11462
हाइट	-11463
हाले	-11464
ेकमा	-11465
▁खाइ	-11466
▁टीम	-11467
▁ढाल	-11468
▁बदल	-11469
▁संत	-11470
▁११०	-11471
बिम्ब	-11472
▁चिसा	-11473
▁मिसन	-11474
▁योनी	-11475
▁रेशम	-11476
▁संगम	-11477
▁सिधै	-11478
▁१९३५	-11479
▁२०४०	-11480
▁उठाउन	-11481
▁काट्न	-11482
▁पनौती	-11483
▁बनिन्	-11484
▁रुखको	-11485
▁लिञ्च	-11486
▁लेखेर	-11487
▁सहरका	-11488
▁सिंगा	-11489
▁हुन्न	-11490
▁असन्तु	-11491
▁गतिशील	-11492
▁जनालाई	-11493
▁नसकेको	-11494
▁भारतिय	-11495
▁माननीय	-11496
▁मेसीले	-11497
▁संकल्प	-11498
▁स्तरका	-11499
▁स्थगित	-11500
▁इण्डिया	-11501
▁चार्टको	-11502
▁चाहिन्छ	-11503
▁तिमीलाई	-11504
▁मूल्यमा	-11505
▁शमशेरको	-11506
▁संरक्षक	-11507
▁आप्रवासी	-11508
▁उल्लङ्घन	-11509
▁नामाङ्कन	-11510
▁न्यौपाने	-11511
▁प्रभावले	-11512
▁महाद्वीप	-11513
▁विष्णुले	-11514
▁संक्रमित	-11515
▁स्वरूपमा	-11516
▁अभिवृद्धि	-11517
▁कम्बोडिया	-11518
▁क्याथोलिक	-11519
▁पाश्चात्य	-11520
▁यान्त्रिक	-11521
▁धृतराष्ट्र	-11522
▁व्यावहारिक	-11523
वु	-11524
वो	-11525
ैत	-11526
पुट	-11527
ूला	-11528
्नो	-11529
▁त्	-11530
दाको	-11531
भरको	-11532
▁अङ्	-11533
▁जगद	-11534
▁जिम	-11535
▁मरण	-11536
▁महत	-11537
▁रिक	-11538
▁वात	-11539
पट्टि	-11540
योजित	-11541
रहन्छ	-11542
सक्ने	-11543
▁इकाई	-11544
▁कम्म	-11545
▁छाती	-11546
▁बोगट	-11547
▁मिली	-11548
▁यूनि	-11549
▁समतल	-11550
▁१९३२	-11551
▁१९४३	-11552
क्ताको	-11553
बिन्दु	-11554
▁खोज्न	-11555
▁टर्बा	-11556
▁धम्की	-11557
▁याज्ञ	-11558
▁समापन	-11559
सङ्ख्यक	-11560
▁आँखामा	-11561
▁उत्साह	-11562
▁कुन्ती	-11563
▁गराएकी	-11564
▁गरेनन्	-11565
▁थ्रिलर	-11566
▁बाबजुद	-11567
▁भुटानी	-11568
▁मजदुरी	-11569
▁रङ्पुर	-11570
▁श्रद्ध	-11571
▁संसाधन	-11572
▁समुहमा	-11573
▁जातिहरू	-11574
▁नाटककार	-11575
▁बहुदलीय	-11576
▁भारतलाई	-11577
▁रहिआएको	-11578
▁रुकुमको	-11579
▁वैधानिक	-11580
▁स्रष्टा	-11581
▁घरपरिवार	-11582
▁त्रिवेणी	-11583
▁देवताहरू	-11584
▁लगाउँछन्	-11585
▁खण्डकाव्य	-11586
▁जनजातिहरू	-11587
▁परिकल्पना	-11588
▁प्रगतिशील	-11589
▁मध्यकालीन	-11590
▁रेजिमेन्ट	-11591
▁कञ्चनजङ्घा	-11592
▁प्रदर्शनमा	-11593
उप	-11594
९४	-11595
९६	-11596
▁जड	-11597
▁सङ	-11598
▁०७	-11599
ङ्गर	-11600
बाजा	-11601
र्से	-11602
ानले	-11603
ृष्ट	-11604
▁थलो	-11605
▁मुज	-11606
▁८००	-11607
दृश्य	-11608
निष्ठ	-11609
पछिको	-11610
पुर्व	-11611
िताको	-11612
ेसनको	-11613
▁अचार	-11614
▁ताका	-11615
▁पाखा	-11616
▁बेसी	-11617
▁बोधि	-11618
▁वज्र	-11619
▁सिग्	-11620
▁१९औँ	-11621
▁२०२९	-11622
ङ्गाना	-11623
▁चुच्च	-11624
▁तारिख	-11625
▁देशभर	-11626
▁नदीका	-11627
▁पत्थर	-11628
▁पहिरन	-11629
▁रोकथा	-11630
▁वाल्ट	-11631
▁शताब्	-11632
▁अधिवेश	-11633
▁उड्डयन	-11634
▁ढुङ्गे	-11635
▁धाराका	-11636
▁नेताको	-11637
▁महल्ला	-11638
▁राज्या	-11639
▁शरीरका	-11640
▁सिस्टम	-11641
▁स्ट्रो	-11642
▁अक्सिजन	-11643
▁जातजाति	-11644
▁थालेपछि	-11645
▁पुग्छन्	-11646
▁ब्राउजर	-11647
▁समृद्धि	-11648
▁स्कुलमा	-11649
▁स्वदेशी	-11650
▁स्वास्थ	-11651
▁हप्ताको	-11652
▁हिमालयन	-11653
▁भूमिकाको	-11654
▁विद्युत्	-11655
▁सुरुङ्गा	-11656
▁अन्तरालमा	-11657
▁आन्दोलनका	-11658
▁कोइरालाले	-11659
▁भेटिन्छन्	-11660
▁महत्त्वको	-11661
▁ह्याट्रिक	-11662
▁निर्वाचनको	-11663
▁प्रस्तावित	-11664
▁च्याम्पियनसिपका	-11665
टू	-11666
बू	-11667
ंतर	-11668
ंमा	-11669
इला	-11670
खंड	-11671
गिक	-11672
टान	-11673
फमा	-11674
िटे	-11675
▁टप	-11676
निकल	-11677
फोटक	-11678
ब्रो	-11679
मिना	-11680
शीमा	-11681
िरको	-11682
▁असी	-11683
▁एकअ	-11684
▁गरु	-11685
▁फीट	-11686
▁बाव	-11687
▁भंग	-11688
▁सुट	-11689
न्तोक	-11690
भाग्य	-11691
▁औपनि	-11692
▁दरले	-11693
▁दिमा	-11694
▁परोप	-11695
▁पिछड	-11696
▁मारे	-11697
▁लड्न	-11698
▁२०३७	-11699
ट्टामा	-11700
यात्री	-11701
स्तरको	-11702
▁उर्वर	-11703
▁गरिबी	-11704
▁थिएटर	-11705
▁पाईने	-11706
▁पाउँछ	-11707
▁बगाले	-11708
▁भाँडो	-11709
▁विद्म	-11710
▁हरूमा	-11711
विस्तार	-11712
▁अभावमा	-11713
▁उत्पति	-11714
▁कुमाउँ	-11715
▁क्वाटर	-11716
▁द्वन्द	-11717
▁निक्कै	-11718
▁निगमले	-11719
▁प्रसंग	-11720
▁भ्युमा	-11721
▁मतदाता	-11722
▁गान्तोक	-11723
▁बनाउनको	-11724
▁ब्राह्म	-11725
▁लिभरपुल	-11726
▁संगीतको	-11727
▁सेकेण्ड	-11728
▁स्पेनको	-11729
▁कोरियाको	-11730
▁उर्ध्वभरण	-11731
▁एथलेटिक्स	-11732
▁कलाकारहरू	-11733
▁ठाउँहरूको	-11734
▁निर्माणका	-11735
▁पुर्याउने	-11736
▁रामचरितमानस	-11737
९३	-11738
इमा	-11739
नेज	-11740
बोट	-11741
▁घृ	-11742
▁९७	-11743
किंग	-11744
गेको	-11745
पीको	-11746
▁अमृ	-11747
▁असल	-11748
▁खुल	-11749
▁झैं	-11750
▁ढुक	-11751
▁शकु	-11752
धिराज	-11753
पर्दा	-11754
पुराण	-11755
शुक्ल	-11756
ह्याम	-11757
▁अवधी	-11758
▁कामी	-11759
▁कारा	-11760
▁जीवि	-11761
▁तहसी	-11762
▁युगा	-11763
▁शङ्ख	-11764
▁सिमर	-11765
▁१९२७	-11766
लाग्दो	-11767
स्थलमा	-11768
▁चल्ला	-11769
▁चोपडा	-11770
▁धानको	-11771
▁पकाएर	-11772
▁फोर्स	-11773
▁फोहोर	-11774
▁मुहान	-11775
▁वेदको	-11776
▁सांस्	-11777
▁सिभिल	-11778
मण्डलको	-11779
ुनारायण	-11780
▁अपराधी	-11781
▁उपासना	-11782
▁उहाँका	-11783
▁ग्याले	-11784
▁जनतामा	-11785
▁डुङ्गा	-11786
▁तराईमा	-11787
▁फूलहरू	-11788
▁बिक्रि	-11789
▁म्युनि	-11790
▁हार्डी	-11791
▁हुनबाट	-11792
▁अगाडिको	-11793
▁ईश्वरको	-11794
▁निकायको	-11795
▁मुकुन्द	-11796
▁रेसलमेन	-11797
▁विशेषतः	-11798
▁सताब्दी	-11799
▁अर्जुनले	-11800
▁इतिहासका	-11801
▁उपप्रमुख	-11802
▁स्थानलाई	-11803
▁परिवर्तित	-11804
▁सगरमाथाको	-11805
▁सहकार्यमा	-11806
▁ह्याभिवेट	-11807
▁क्याम्पसको	-11808
▁सङ्क्रान्ति	-11809
▁इलेक्ट्रोनिक	-11810
▁कवितासङ्ग्रह	-11811
▁प्रक्रियालाई	-11812
▁सामग्रीहरूको	-11813
मद	-11814
०६	-11815
▁ञ	-11816
कुन	-11817
मता	-11818
लेक	-11819
शिल	-11820
▁लख	-11821
ईन्छ	-11822
प्ला	-11823
भाजन	-11824
वानि	-11825
वाले	-11826
हिटी	-11827
▁ओझा	-11828
▁डरा	-11829
▁डुब	-11830
▁ढोल	-11831
▁दर्	-11832
▁रिट	-11833
▁वसो	-11834
▁वेश	-11835
▁समश	-11836
▁सिङ	-11837
▁हिँ	-11838
पालको	-11839
▁आईपी	-11840
▁कपास	-11841
▁कर्क	-11842
▁जोगी	-11843
▁दन्त	-11844
▁धरात	-11845
▁नीलो	-11846
▁पागल	-11847
▁पाठक	-11848
▁फेसन	-11849
▁बार्	-11850
▁मन्थ	-11851
▁१५००	-11852
▁१९३७	-11853
जेरिया	-11854
▁उस्तै	-11855
▁कराची	-11856
▁कोइला	-11857
▁खरायो	-11858
▁चल्यो	-11859
▁छिट्ट	-11860
▁जनाउन	-11861
▁दिनेश	-11862
▁नदिको	-11863
▁पहिरो	-11864
▁प्रवर	-11865
▁बस्दै	-11866
▁रायमा	-11867
▁रोगका	-11868
▁वैश्व	-11869
▁सङ्कल	-11870
▁सभासद	-11871
▁अद्याव	-11872
▁अर्याल	-11873
▁आजसम्म	-11874
▁उपर्यु	-11875
▁कमजोरी	-11876
▁खोज्ने	-11877
▁गुराँस	-11878
▁नाटकीय	-11879
▁प्रदाय	-11880
▁प्रप्त	-11881
▁माटोमा	-11882
▁स्टोरी	-11883
▁उपचारका	-11884
▁पाइँदैन	-11885
▁मित्रता	-11886
▁संस्मरण	-11887
▁उपप्रधान	-11888
▁गान्धीले	-11889
▁ग्रन्थको	-11890
▁जन्मिएकी	-11891
▁वासिन्दा	-11892
▁सूचकाङ्क	-11893
▁कोलम्बिया	-11894
▁गाउपालिका	-11895
▁जातिहरूको	-11896
▁प्रदेशहरू	-11897
▁वनस्पतिको	-11898
▁इम्प्याक्ट	-11899
▁चलचित्रबाट	-11900
▁पाण्डुलिपि	-11901
▁प्रोत्साहन	-11902
▁टुर्नामेन्ट	-11903
▁अस्ट्रेलियाका	-11904
▁प्रधानन्यायाधीश	-11905
०४	-11906
दशी	-11907
भिस	-11908
भेट	-11909
▁इक	-11910
टिको	-11911
न्टन	-11912
पोषण	-11913
ष्ठी	-11914
सरको	-11915
▁कोल	-11916
▁सिए	-11917
▁हाड	-11918
विहीन	-11919
▁झाडी	-11920
▁तलको	-11921
▁प्रौ	-11922
▁बारी	-11923
▁भोटे	-11924
▁मेका	-11925
▁रिली	-11926
▁समया	-11927
खण्डमा	-11928
न्तरित	-11929
स्मृति	-11930
▁ऋषिका	-11931
▁डार्क	-11932
▁भर्ती	-11933
▁भागेर	-11934
▁उत्थान	-11935
▁किराती	-11936
▁खेलिने	-11937
▁दुर्गम	-11938
▁फ्लोरि	-11939
▁महाप्र	-11940
▁मार्सल	-11941
▁स्वयम्	-11942
▁क्याप्ट	-11943
▁पोखरामा	-11944
▁पोखरीमा	-11945
▁योजनाको	-11946
▁रणनीतिक	-11947
▁सुनकोशी	-11948
जरल्यान्ड	-11949
▁कुराकानी	-11950
▁पश्चिमको	-11951
▁पुरस्कृत	-11952
▁श्रेणीको	-11953
▁प्रतिबद्ध	-11954
▁विकीस्रोत	-11955
▁उपस्थितिमा	-11956
▁विशेषताहरू	-11957
▁पुरस्कारहरू	-11958
▁गिरिजाप्रसाद	-11959
वश	-11960
थाङ	-11961
ाउछ	-11962
ोपण	-11963
्यौ	-11964
ल्लू	-11965
सचिव	-11966
िहरू	-11967
▁एस्	-11968
▁चीज	-11969
▁जबर	-11970
▁पाच	-11971
▁बोग	-11972
▁भग्	-11973
▁युथ	-11974
▁र्स	-11975
▁वाङ	-11976
▁सखर	-11977
▁सनद	-11978
ङ्गमा	-11979
चार्ज	-11980
दिष्ट	-11981
न्याल	-11982
शासित	-11983
्दछन्	-11984
▁उन्म	-11985
▁एङ्ग	-11986
▁घातक	-11987
▁डिप्	-11988
▁परेर	-11989
▁बदाम	-11990
▁बर्ण	-11991
▁बृहत	-11992
▁१९२४	-11993
▁१९२९	-11994
▁१९३६	-11995
सहितको	-11996
्लादिम	-11997
▁उत्ते	-11998
▁कार्ल	-11999
▁खुट्ट	-12000
▁जन्तु	-12001
▁पेटमा	-12002
▁फुटसल	-12003
▁मुद्र	-12004
▁सुचना	-12005
▁सुत्र	-12006
▁सुरुङ	-12007
चार्यको	-12008
▁घटनामा	-12009
▁जन्मको	-12010
▁तिमीले	-12011
▁धाराको	-12012
▁पक्षले	-12013
▁बिहारी	-12014
▁महर्जन	-12015
▁मारुनी	-12016
▁लेखेकी	-12017
▁साइन्स	-12018
▁कब्जामा	-12019
▁गणराज्य	-12020
▁टापुहरू	-12021
▁दक्षिणा	-12022
▁निलम्बन	-12023
▁पर्वहरू	-12024
▁भ्रमणमा	-12025
▁विद्महे	-12026
▁विरोधमा	-12027
▁व्यञ्जन	-12028
▁सेनाहरू	-12029
▁हस्तिना	-12030
▁इन्जिनको	-12031
▁प्रजापति	-12032
▁वाल्मीकि	-12033
▁सांगीतिक	-12034
▁क्रियाशील	-12035
▁प्रदर्शनको	-12036
▁राजनितिज्ञ	-12037
▁कृष्णप्रसाद	-12038
▁मर्स्याङ्दी	-12039
▁सैद्धान्तिक	-12040
▁संविधानसभामा	-12041
▁नगरपालिकाहरूको	-12042
०२	-12043
टले	-12044
तोप	-12045
▁म्	-12046
च्छे	-12047
जाबे	-12048
ट्टी	-12049
न्जर	-12050
भरमा	-12051
मामा	-12052
▁इसा	-12053
▁कां	-12054
▁थाई	-12055
▁पिर	-12056
▁वृह	-12057
▁शाल	-12058
▁सत्	-12059
प्राय	-12060
बहिनी	-12061
▁अर्ग	-12062
▁झगडा	-12063
▁नक्स	-12064
▁बर्त	-12065
▁मरिच	-12066
▁वाणी	-12067
▁सुमन	-12068
▁स्टो	-12069
▁हुनत	-12070
ज्योति	-12071
ोनाल्ड	-12072
▁किन्न	-12073
▁छैठौं	-12074
▁नजरुल	-12075
▁पठाउन	-12076
▁लेफ्ट	-12077
▁अधिनमा	-12078
▁अभिमुख	-12079
▁उनीलाई	-12080
▁चढाउने	-12081
▁जुनियर	-12082
▁डिक्सन	-12083
▁द्रोणा	-12084
▁पेशामा	-12085
▁मान्नु	-12086
▁मुटुको	-12087
▁शम्शेर	-12088
▁औपनिवेश	-12089
▁जङ्गलमा	-12090
▁जिम्बाब	-12091
▁थापालाई	-12092
▁दुवैलाई	-12093
▁निकालेर	-12094
▁पाउँछन्	-12095
▁ब्याण्ड	-12096
▁वेदान्त	-12097
▁अध्ययनका	-12098
▁आचार्यले	-12099
▁एम्ब्रोज	-12100
▁देहरादुन	-12101
▁नियमावली	-12102
▁मेगाहर्ज	-12103
▁सञ्जालमा	-12104
▁रुद्राक्ष	-12105
▁वृत्तचित्र	-12106
▁महाविद्यालय	-12107
▁युनिभर्सिटी	-12108
▁प्यालेस्टाइन	-12109
▁च्याम्पियनसिपको	-12110
९८	-12111
जेल	-12112
थोक	-12113
पिट	-12114
वडा	-12115
विद	-12116
▁गल	-12117
▁थी	-12118
क्रि	-12119
न्को	-12120
प्टर	-12121
र्टन	-12122
ौँडा	-12123
▁ढोर	-12124
▁दिप	-12125
▁पंच	-12126
▁वेग	-12127
▁सेक	-12128
▁हल्	-12129
▁हिज	-12130
भाषिक	-12131
र्वाद	-12132
वारको	-12133
विज्ञ	-12134
▁आदिम	-12135
▁उतार	-12136
▁खाले	-12137
▁थोपा	-12138
▁थ्रो	-12139
▁पृथक	-12140
▁वाङ्	-12141
▁सासा	-12142
▁हुमा	-12143
▁१९०४	-12144
▁१९१०	-12145
मानन्द	-12146
स्वामी	-12147
▁कमाउन	-12148
▁खान्छ	-12149
▁गल्ती	-12150
▁जागरण	-12151
▁जीर्ण	-12152
▁ब्याक	-12153
▁महासा	-12154
▁विजया	-12155
वस्थामा	-12156
▁कमाएको	-12157
▁पठाएका	-12158
▁बताएकी	-12159
▁बाँच्न	-12160
▁बीबीसी	-12161
▁भूमिको	-12162
▁मनोनीत	-12163
▁यसकारण	-12164
▁समाजले	-12165
▁हैसियत	-12166
▁एलिजाबे	-12167
▁गङ्गाको	-12168
▁गुजराती	-12169
▁टोलीबाट	-12170
▁त्यसपछी	-12171
▁बर्मेली	-12172
▁ब्रिटेन	-12173
▁भैरहेको	-12174
▁मध्यस्थ	-12175
▁मोतीराम	-12176
▁रियाजले	-12177
▁लाभदायक	-12178
▁श्रीमद्	-12179
▁हेरिएको	-12180
▁अथर्ववेद	-12181
▁ब्यबस्था	-12182
▁भिडियोमा	-12183
▁संरचनामा	-12184
▁उपर्युक्त	-12185
▁ठाउँहरूमा	-12186
▁देशव्यापी	-12187
▁स्वाभाविक	-12188
▁स्विडेनको	-12189
▁कम्पनीहरूको	-12190
▁चन्द्रगुप्त	-12191
▁प्रतिबन्धित	-12192
▁महिलाहरूलाई	-12193
▁पुनर्स्थापना	-12194
▁हिन्दुस्तानी	-12195
ंगल	-12196
जीन	-12197
ज्व	-12198
डले	-12199
सिह	-12200
ेशी	-12201
▁अौ	-12202
त्तम	-12203
त्यस	-12204
र्कि	-12205
ल्सन	-12206
वल्क	-12207
स्ते	-12208
िन्स	-12209
ौनिक	-12210
▁जेट	-12211
▁तित	-12212
▁नजर	-12213
▁सरी	-12214
▁होस	-12215
र्दशन	-12216
▁अव्य	-12217
▁जिया	-12218
▁पाली	-12219
▁भाँच	-12220
▁रोक्	-12221
▁लाइफ	-12222
▁हमाल	-12223
ितोष्ण	-12224
▁गर्भा	-12225
▁जागीर	-12226
▁देखाइ	-12227
▁निश्च	-12228
▁मार्भ	-12229
▁यहूदी	-12230
▁याएका	-12231
▁रिमाल	-12232
▁लिन्च	-12233
▁विनोद	-12234
▁स्टोर	-12235
▁हेरेर	-12236
प्राप्त	-12237
▁अग्रसर	-12238
▁आमालाई	-12239
▁चतुर्द	-12240
▁निन्दा	-12241
▁न्यानो	-12242
▁भवनहरू	-12243
▁मातृका	-12244
▁लेख्नु	-12245
▁शस्त्र	-12246
▁सार्की	-12247
▁हुर्का	-12248
▁गोरखाली	-12249
▁थाल्छन्	-12250
▁बनाउनका	-12251
▁मुजिबुर	-12252
▁रंगशाला	-12253
▁विचारको	-12254
▁संगीतमा	-12255
▁इस्लामिक	-12256
▁उत्प्रेर	-12257
▁क्यापिटल	-12258
▁माध्यमले	-12259
▁रोनाल्डो	-12260
▁वासस्थान	-12261
▁सङ्गीतमा	-12262
▁अस्ट्रिया	-12263
▁कर्नाटकको	-12264
▁किर्तिमान	-12265
▁समानान्तर	-12266
▁सम्मेलनको	-12267
▁पूर्णिमाको	-12268
▁हत्याकाण्ड	-12269
▁प्रतिष्ठानको	-12270
▁बालबालिकालाई	-12271
▁राष्ट्रमण्डल	-12272
ंभ	-12273
चू	-12274
वीय	-12275
िमो	-12276
▁इँ	-12277
ड्दा	-12278
थाने	-12279
नाइस	-12280
माता	-12281
लबार	-12282
ेसले	-12283
▁गार	-12284
▁त्व	-12285
▁थपि	-12286
▁बोस	-12287
▁रणो	-12288
▁सपथ	-12289
न्टको	-12290
ाउण्ड	-12291
्छिन्	-12292
▁ऐश्व	-12293
▁कहीं	-12294
▁चम्प	-12295
▁जगत्	-12296
▁नानी	-12297
▁बोसो	-12298
▁राजग	-12299
▁हेल्	-12300
▁ह्वा	-12301
▁१९२२	-12302
▁आइओएस	-12303
▁आत्मक	-12304
▁क्यास	-12305
▁गतेको	-12306
▁घिमिर	-12307
▁चौडाइ	-12308
▁ठाउमा	-12309
▁तेलमा	-12310
▁प्वाल	-12311
▁भागवत	-12312
▁माथवर	-12313
▁स्वतः	-12314
▁हालका	-12315
▁हिटलर	-12316
▁चराहरू	-12317
▁तोकेको	-12318
▁पातहरू	-12319
▁ब्याटल	-12320
▁भग्नाव	-12321
▁मल्लका	-12322
▁महासभा	-12323
▁रामपुर	-12324
▁रामानु	-12325
▁हरूलाई	-12326
▁हावाको	-12327
▁इटालियन	-12328
▁एजेन्सी	-12329
▁कारागार	-12330
▁गर्नुको	-12331
▁छोराहरू	-12332
▁जीवनलाई	-12333
▁रचनाहरू	-12334
▁वर्षाको	-12335
▁सन्तुलन	-12336
▁सिंहलाई	-12337
शास्त्रको	-12338
▁कूटनीतिक	-12339
▁भद्रकाली	-12340
▁रेलमार्ग	-12341
▁सन्तानको	-12342
▁अनौपचारिक	-12343
▁कलकत्तामा	-12344
▁ग्राहकहरू	-12345
▁परिमार्जन	-12346
▁महत्त्वका	-12347
▁श्रेष्ठले	-12348
▁इन्टरनेशनल	-12349
▁उत्तराधिकार	-12350
मह	-12351
घ्र	-12352
चुक	-12353
झैँ	-12354
फले	-12355
बोध	-12356
हिँ	-12357
ेसी	-12358
ोरा	-12359
▁धै	-12360
क्शन	-12361
टीका	-12362
ब्या	-12363
▁आसन	-12364
▁कले	-12365
▁जरि	-12366
▁धुम	-12367
▁ध्य	-12368
▁सब्	-12369
निकोड	-12370
▁अकाद	-12371
▁किला	-12372
▁खिला	-12373
▁गोठा	-12374
▁ग्रो	-12375
▁नरेश	-12376
▁मुलु	-12377
▁वेला	-12378
▁सम्भ	-12379
▁सिक्	-12380
▁सिधा	-12381
▁हीरा	-12382
▁१९२८	-12383
▁२०३१	-12384
त्यक्ष	-12385
▁अनौठो	-12386
▁आउँदै	-12387
▁गम्पो	-12388
▁गराएर	-12389
▁चाहना	-12390
▁जमुना	-12391
▁मद्रा	-12392
▁सकियो	-12393
▁समयमै	-12394
▁सर्कि	-12395
▁सिन्द	-12396
▁कमाउने	-12397
▁काट्ने	-12398
▁खोजीमा	-12399
▁नगरकोट	-12400
▁वर्षकी	-12401
▁व्रतको	-12402
▁सेवानि	-12403
▁सोमबार	-12404
▁इन्स्टि	-12405
▁उपचारमा	-12406
▁ठाउँहरू	-12407
▁देवताका	-12408
▁नगरिएको	-12409
▁बराबरको	-12410
▁बाग्लुङ	-12411
▁भ्लादिम	-12412
▁रचनाकार	-12413
▁वेल्डिङ	-12414
▁हिउँदमा	-12415
▁अनुसूचित	-12416
▁कार्यभार	-12417
▁जर्मनीले	-12418
▁प्रवर्तक	-12419
▁प्रोफेसर	-12420
▁भञ्ज्याङ	-12421
▁मूर्तिको	-12422
▁राजदरबार	-12423
▁प्रान्तमा	-12424
▁फाउन्डेसन	-12425
▁शब्दहरूको	-12426
▁शासकहरूले	-12427
▁संरक्षणको	-12428
▁आयुर्वेदिक	-12429
▁चन्द्रमाको	-12430
▁प्रयोगशाला	-12431
▁व्यवस्थामा	-12432
▁कर्मचारीहरू	-12433
▁विश्वामित्र	-12434
▁क्रिस्टीद्वारा	-12435
▁च्याम्पियनसिपमा	-12436
शर	-12437
ूँ	-12438
काउ	-12439
पनी	-12440
लता	-12441
ुरि	-12442
▁बध	-12443
एनन्	-12444
दिया	-12445
पक्व	-12446
वारा	-12447
स्नु	-12448
▁आशी	-12449
▁कर्	-12450
▁ख्व	-12451
▁टार	-12452
▁भिज	-12453
▁शैव	-12454
▁सिड	-12455
वलीमा	-12456
सेनको	-12457
ानीमा	-12458
▁उब्ज	-12459
▁कन्फ	-12460
▁खोकी	-12461
▁घ्यू	-12462
▁छाना	-12463
▁जनघन	-12464
▁फर्म	-12465
▁ब्यू	-12466
▁भेडा	-12467
▁मतलब	-12468
▁योनि	-12469
▁सीधा	-12470
▁१८५७	-12471
▁१९१२	-12472
पदार्थ	-12473
▁अक्सर	-12474
▁कैयौँ	-12475
▁टुङ्ग	-12476
▁डिस्क	-12477
▁डेउडा	-12478
▁तन्नो	-12479
▁तिनले	-12480
▁नकआउट	-12481
▁पतिको	-12482
▁सुदुर	-12483
▁अस्थिर	-12484
▁औषधिको	-12485
▁कार्बो	-12486
▁केन्या	-12487
▁चाहेको	-12488
▁टापुमा	-12489
▁तामाको	-12490
▁देखियो	-12491
▁नाटकमा	-12492
▁पुग्दा	-12493
▁पुग्नु	-12494
▁पोर्टल	-12495
▁रैथाने	-12496
▁विषालु	-12497
▁हालसाल	-12498
▁अनियमित	-12499
▁प्राज्ञ	-12500
▁उपेन्द्र	-12501
▁चिसापानी	-12502
▁जवाहरलाल	-12503
▁पूर्णतया	-12504
▁प्रवाहित	-12505
▁स्काउटले	-12506
▁महाभारतका	-12507
▁लिमिटेडको	-12508
▁वेबसाइटको	-12509
▁सामान्यतः	-12510
▁आलोचनात्मक	-12511
▁उम्मेदवारी	-12512
▁मानिसहरूमा	-12513
चरी	-12514
निए	-12515
पोत	-12516
र्छ	-12517
ुले	-12518
▁इभ	-12519
▁०४	-12520
जानी	-12521
न्दन	-12522
पत्य	-12523
र्टर	-12524
लेखन	-12525
ह्या	-12526
िस्ट	-12527
ेलाई	-12528
ौकिक	-12529
▁आवृ	-12530
▁जार	-12531
▁दिस	-12532
▁नाल	-12533
▁पढे	-12534
▁भुई	-12535
▁लोभ	-12536
▁१०१	-12537
कान्त	-12538
नीलाई	-12539
▁आगरा	-12540
▁आवरण	-12541
▁थरका	-12542
▁दमाई	-12543
▁फाइल	-12544
▁बलमा	-12545
▁भङ्ग	-12546
▁मृतक	-12547
▁वाचन	-12548
▁१९२५	-12549
▁१९३३	-12550
▁अभ्या	-12551
▁अवस्थ	-12552
▁डन्डी	-12553
▁बलराम	-12554
▁ब्यान	-12555
▁रगतको	-12556
▁संघीय	-12557
▁स्टोन	-12558
▁हटाएर	-12559
▁हर्रो	-12560
शमशेरले	-12561
▁खोलामा	-12562
▁चिल्लो	-12563
▁जंगलमा	-12564
▁पर्नेछ	-12565
▁पारम्प	-12566
▁रोक्ने	-12567
▁वसोवास	-12568
▁सहरबाट	-12569
▁जगदम्बा	-12570
▁पुत्रको	-12571
▁प्रशोधन	-12572
▁लन्डनमा	-12573
▁हप्तामा	-12574
▁कश्मीरको	-12575
▁गाविसलाई	-12576
▁प्रभावको	-12577
▁स्वचालित	-12578
▁उत्पादनका	-12579
▁औपनिवेशिक	-12580
▁गोरखापत्र	-12581
▁वातावरणीय	-12582
▁व्यवसायमा	-12583
▁सन्तानहरू	-12584
▁द्वन्द्वको	-12585
▁प्रायद्वीप	-12586
▁राजस्थानको	-12587
▁राज्याभिषेक	-12588
डन	-12589
धे	-12590
ईएफ	-12591
गंज	-12592
बाग	-12593
बाज	-12594
सैन	-12595
▁कन	-12596
▁०२	-12597
ंगको	-12598
मपुर	-12599
रिने	-12600
र्वे	-12601
शंकर	-12602
सेवी	-12603
िमिओ	-12604
▁आगम	-12605
▁खुक	-12606
▁नसक	-12607
▁पेस	-12608
▁मकर	-12609
▁मता	-12610
▁हलो	-12611
ताबाट	-12612
नान्स	-12613
न्दार	-12614
स्तिक	-12615
▁अनिल	-12616
▁आँसु	-12617
▁इंग्	-12618
▁ऋषिक	-12619
▁एंगे	-12620
▁एन्ट	-12621
▁करार	-12622
▁केशर	-12623
▁क्षे	-12624
▁छोडि	-12625
▁जिग्	-12626
▁तहका	-12627
▁नदेख	-12628
▁नाजी	-12629
▁निया	-12630
▁पिपल	-12631
▁पुरी	-12632
▁फायर	-12633
▁बाजी	-12634
▁महाल	-12635
▁मादल	-12636
▁लाइट	-12637
▁लाभा	-12638
▁वाहन	-12639
▁श्या	-12640
▁हत्य	-12641
▁२०औँ	-12642
सियाली	-12643
▁अमिलो	-12644
▁एकत्र	-12645
▁काँडा	-12646
▁काखमा	-12647
▁दुरुप	-12648
▁पन्छी	-12649
▁पुनरा	-12650
▁भिमिओ	-12651
▁युक्र	-12652
▁सभाले	-12653
▁सिक्न	-12654
▁अन्याय	-12655
▁अभिन्न	-12656
▁चुनावी	-12657
▁डिल्ली	-12658
▁ढाकेको	-12659
▁तराईका	-12660
▁नरहेको	-12661
▁पुर्वी	-12662
▁प्रचुर	-12663
▁यान्दे	-12664
▁रहेकोछ	-12665
▁रेखदेख	-12666
▁सेवाका	-12667
▁२०५८मा	-12668
कर्ताहरू	-12669
▁कार्टुन	-12670
▁गरेकोमा	-12671
▁जहाँबाट	-12672
▁तत्वहरू	-12673
▁पुर्वमा	-12674
▁प्रसस्त	-12675
▁फिल्मको	-12676
▁लेखिन्छ	-12677
▁व्यायाम	-12678
▁उमेरदेखि	-12679
▁दुरुपयोग	-12680
▁नेपालीको	-12681
▁ब्राह्मी	-12682
▁रामायणमा	-12683
▁शक्तिलाई	-12684
▁सन्तुलित	-12685
▁प्रतिज्ञा	-12686
▁संविधानले	-12687
▁अन्तर्गतका	-12688
▁कांग्रेसले	-12689
▁पूर्णरूपमा	-12690
▁निर्माणाधीन	-12691
▁शान्तिपूर्ण	-12692
▁अधिकारीहरूले	-12693
ौन	-12694
गोर	-12695
टका	-12696
टाई	-12697
फेर	-12698
महल	-12699
वेस	-12700
हाज	-12701
ौता	-12702
ौना	-12703
▁थै	-12704
▁०३	-12705
म्भु	-12706
याधि	-12707
र्जे	-12708
शैली	-12709
श्रा	-12710
ोषित	-12711
▁आवत	-12712
▁एल्	-12713
▁काई	-12714
▁ग्व	-12715
▁घोल	-12716
▁चिज	-12717
▁टिभ	-12718
▁ठोक	-12719
▁भल्	-12720
क्समा	-12721
चानको	-12722
न्डेस	-12723
पुच्छ	-12724
बाहिर	-12725
स्मिक	-12726
ियममा	-12727
्रीको	-12728
▁आचरण	-12729
▁कोल्	-12730
▁क्ले	-12731
▁गाथा	-12732
▁पाचन	-12733
▁भैरह	-12734
▁मधेस	-12735
▁वकिल	-12736
▁सयौं	-12737
▁साइड	-12738
▁सानु	-12739
▁सुने	-12740
▁स्ने	-12741
▁१९०१	-12742
संरचना	-12743
स्ट्री	-12744
▁अत्तर	-12745
▁उत्पी	-12746
▁खम्बा	-12747
▁गतेका	-12748
▁ग्रिन	-12749
▁जुनमा	-12750
▁टुक्र	-12751
▁पद्मश	-12752
▁फर्के	-12753
▁फाइबर	-12754
▁बाइसे	-12755
▁मच्छि	-12756
▁मञ्जु	-12757
▁रगतमा	-12758
▁संगित	-12759
▁सञ्जय	-12760
▁स्याउ	-12761
अक्साइड	-12762
लगायतका	-12763
▁अभियोग	-12764
▁अस्टिन	-12765
▁खातामा	-12766
▁गहिराई	-12767
▁गोत्री	-12768
▁छिट्टै	-12769
▁जमिनको	-12770
▁ब्राउन	-12771
▁समयपछि	-12772
▁सिंचाई	-12773
▁गर्नबाट	-12774
▁तदनुसार	-12775
▁मिनेटको	-12776
▁शाखाहरू	-12777
▁सतहदेखि	-12778
▁समाजलाई	-12779
▁सालसम्म	-12780
▁अद्वितीय	-12781
▁कुलदेवता	-12782
▁खेलहरूको	-12783
▁देशहरूले	-12784
▁पर्यटकिय	-12785
▁मुद्दामा	-12786
▁अस्पतालको	-12787
▁ललितपुरको	-12788
▁संरक्षणका	-12789
▁संस्कृतको	-12790
▁सिलसिलामा	-12791
▁अंशुवर्माको	-12792
पै	-12793
पङ्	-12794
लाङ	-12795
सिल	-12796
िये	-12797
▁उल	-12798
▁ढो	-12799
कालु	-12800
वर्ड	-12801
शाको	-12802
ानाथ	-12803
▁उजा	-12804
▁तलब	-12805
▁फिल	-12806
▁शान	-12807
▁सधै	-12808
▁१४०	-12809
रेन्स	-12810
विवाह	-12811
्याएर	-12812
▁एनिम	-12813
▁चढेर	-12814
▁द्वी	-12815
▁निगर	-12816
▁निधि	-12817
▁पौडी	-12818
▁लेबल	-12819
▁वादी	-12820
वास्ता	-12821
स्टिनी	-12822
▁आदिले	-12823
▁औषधीय	-12824
▁गरिमा	-12825
▁चङ्गा	-12826
▁चन्दन	-12827
▁डियान	-12828
▁तरीका	-12829
▁पानको	-12830
▁मतभेद	-12831
▁राजीव	-12832
▁शिवले	-12833
▁सडकको	-12834
▁खण्डित	-12835
▁गहिराइ	-12836
▁छेउछाउ	-12837
▁टिस्टा	-12838
▁तानसेन	-12839
▁निकटतम	-12840
▁भन्सार	-12841
▁भागबाट	-12842
▁म्यारा	-12843
▁युनानी	-12844
▁विजयको	-12845
▁शहरहरू	-12846
▁स्पर्श	-12847
▁हातबाट	-12848
निरपेक्ष	-12849
पंक्तिको	-12850
▁उष्णकटि	-12851
▁कम्प्यू	-12852
▁घाँटीमा	-12853
▁चम्किलो	-12854
▁जनघनत्व	-12855
▁नियमहरू	-12856
▁नेटफ्लि	-12857
▁पाथीभरा	-12858
▁प्रशंसक	-12859
▁भुटानमा	-12860
▁रक्तचाप	-12861
▁राहदानी	-12862
▁विरूद्व	-12863
▁शक्तिमा	-12864
▁शुरूवात	-12865
▁इलेक्ट्र	-12866
▁एकाधिकार	-12867
▁गरिदिएका	-12868
▁तालिकाको	-12869
▁योगदानको	-12870
▁विभाजनको	-12871
▁सामाग्री	-12872
▁अद्यावधिक	-12873
▁महासागरको	-12874
▁याज्ञवल्क	-12875
▁अप्रत्यक्ष	-12876
▁मच्छिन्द्र	-12877
▁क्षतिपूर्ति	-12878
▁प्रधानमन्त्र	-12879
▁मन्त्रिपरिषद्को	-12880
टास	-12881
मुल	-12882
वला	-12883
सम्	-12884
▁ओड	-12885
▁मड	-12886
▁लव	-12887
▁सघ	-12888
ँचाइ	-12889
काले	-12890
कुवा	-12891
जहाँ	-12892
टरमा	-12893
धीको	-12894
न्जन	-12895
न्यो	-12896
न्सा	-12897
प्नु	-12898
मोहक	-12899
म्मी	-12900
स्ले	-12901
हिणी	-12902
्रिज	-12903
▁अशु	-12904
▁आरु	-12905
▁घले	-12906
▁चैन	-12907
▁जीन	-12908
▁मीन	-12909
▁लगन	-12910
▁वाय	-12911
द्दिन	-12912
न्जिन	-12913
बुद्ध	-12914
मूल्य	-12915
र्तिक	-12916
सिएको	-12917
▁अण्ड	-12918
▁जबरज	-12919
▁तिथी	-12920
▁दिना	-12921
▁माफी	-12922
▁मुला	-12923
▁लाओस	-12924
▁विशे	-12925
▁व्यब	-12926
▁सिड्	-12927
▁हातह	-12928
दुर्गा	-12929
वार्ता	-12930
▁आश्रय	-12931
▁चाँदी	-12932
▁तालीम	-12933
▁तैनाथ	-12934
▁धर्ती	-12935
▁प्रदू	-12936
▁फत्ते	-12937
▁बढीको	-12938
▁बलुचि	-12939
▁रोपनी	-12940
▁लेखमा	-12941
▁एसएलसी	-12942
▁खानाको	-12943
▁गहुँको	-12944
▁ग्याँस	-12945
▁चलाएको	-12946
▁चितुवा	-12947
▁जनताका	-12948
▁जनाएकी	-12949
▁जीवाणु	-12950
▁थालिन्	-12951
▁दार्जी	-12952
▁दुवैले	-12953
▁पर्यवे	-12954
▁बहराइन	-12955
▁मार्भल	-12956
▁समर्पण	-12957
▁कार्यका	-12958
▁कूटनीति	-12959
▁गुमाएका	-12960
▁घटनालाई	-12961
▁छोरालाई	-12962
▁तीमध्ये	-12963
▁पाँचवटा	-12964
▁पुगिन्छ	-12965
▁भित्रका	-12966
▁व्याप्त	-12967
▁शताब्दि	-12968
▁संसारकै	-12969
▁एलिजाबेथ	-12970
▁पहिचानको	-12971
▁रामेश्वर	-12972
▁विशेषतया	-12973
▁शुक्रबार	-12974
▁सहायताले	-12975
▁हिमशृङ्ख	-12976
▁गरिसकेपछि	-12977
▁प्रोजेक्ट	-12978
▁भक्तपुरमा	-12979
▁भग्नावशेष	-12980
▁श्रद्धालु	-12981
▁सिंहदरबार	-12982
▁क्यारिबियन	-12983
▁सम्बन्धलाई	-12984
▁हनुमानढोका	-12985
▁हेर्नुहोस्	-12986
▁डेमोक्रेटिक	-12987
▁पुरस्कारबाट	-12988
▁मन्त्रिमण्ड	-12989
▁संस्थाहरूको	-12990
▁जङ्गबहादुरले	-12991
झै	-12992
।.	-12993
ज्म	-12994
द्घ	-12995
मिङ	-12996
ूलन	-12997
▁सज	-12998
करले	-12999
किला	-13000
ब्बर	-13001
सनले	-13002
हाइड	-13003
होरा	-13004
▁कजा	-13005
▁जाए	-13006
▁डिल	-13007
▁बनी	-13008
▁रजि	-13009
▁रत्	-13010
▁लिइ	-13011
▁वाच	-13012
▁वोग	-13013
▁सुच	-13014
▁हले	-13015
▁९००	-13016
▁एफएम	-13017
▁एसिड	-13018
▁चौबी	-13019
▁जागर	-13020
▁जैसी	-13021
▁ठोक्	-13022
▁डब्ल	-13023
▁नसके	-13024
▁भएकै	-13025
▁भरमा	-13026
▁मतको	-13027
▁संवत	-13028
▁सम्य	-13029
▁स्तो	-13030
▁१९३१	-13031
काहारी	-13032
तर्फको	-13033
प्रदान	-13034
▁असामा	-13035
▁इन्भे	-13036
▁एन्जल	-13037
▁एन्फा	-13038
▁कामुक	-13039
▁खाएको	-13040
▁चार्ज	-13041
▁तरवार	-13042
▁ताम्र	-13043
▁थिईन्	-13044
▁पढेका	-13045
▁बिर्स	-13046
▁बिस्क	-13047
▁मिल्न	-13048
▁रातको	-13049
▁विवहा	-13050
कर्ताको	-13051
्यात्मक	-13052
▁उपधारा	-13053
▁कम्पनि	-13054
▁ड्यनिए	-13055
▁नागपुर	-13056
▁पार्दै	-13057
▁पुनराव	-13058
▁भोग्नु	-13059
▁स्ट्रे	-13060
▁अन्यत्र	-13061
▁आन्द्रा	-13062
▁केटाकेट	-13063
▁गइरहेको	-13064
▁गरिएपछि	-13065
▁ढाकिएको	-13066
▁प्रारूप	-13067
▁शासनकाल	-13068
▁सकेसम्म	-13069
▁सन्धिको	-13070
▁हालसालै	-13071
▁इतिहासमै	-13072
▁निबन्धमा	-13073
▁बसन्तपुर	-13074
▁सक्दैनन्	-13075
▁स्टारलेट	-13076
▁स्वरूपको	-13077
▁असुरक्षित	-13078
▁त्यसपछिका	-13079
▁नेपालगञ्ज	-13080
▁प्रसिद्धि	-13081
▁विद्यापति	-13082
▁सत्याग्रह	-13083
▁स्वच्छन्द	-13084
▁इन्टरनेटमा	-13085
▁उत्पादनहरू	-13086
▁कालीगण्डकी	-13087
▁प्रतिरक्षा	-13088
▁महाकाव्यको	-13089
▁अन्तरक्रिया	-13090
▁विमानस्थलमा	-13091
▁धर्मनिरपेक्ष	-13092
▁स्म्याकडाउनको	-13093
▁विश्वविद्यालयले	-13094
िप	-13095
िफ	-13096
उरो	-13097
छिन	-13098
थ्व	-13099
बिज	-13100
बुत	-13101
रित	-13102
ुलर	-13103
▁छौ	-13104
▁रब	-13105
न्का	-13106
पारी	-13107
ेनको	-13108
ेलमा	-13109
ैँचा	-13110
्रोन	-13111
▁आली	-13112
▁दाग	-13113
▁दुल	-13114
▁धमि	-13115
▁नाघ	-13116
▁नीर	-13117
▁बाउ	-13118
▁यून	-13119
छुट्ट	-13120
्रेता	-13121
▁एमएस	-13122
▁कोला	-13123
▁गाएर	-13124
▁छुवा	-13125
▁डिफे	-13126
▁दलाई	-13127
▁दीपा	-13128
▁देवल	-13129
▁पाटी	-13130
▁शव्द	-13131
▁स्वत	-13132
▁हलको	-13133
▁१९१३	-13134
▁१९२६	-13135
स्तरमा	-13136
▁अखण्ड	-13137
▁अनुरा	-13138
▁क्रिम	-13139
▁चरणका	-13140
▁नदिने	-13141
▁न्युट	-13142
▁पेटको	-13143
▁भतिजा	-13144
▁भनिन्	-13145
▁मदिरा	-13146
▁यसैको	-13147
▁यातना	-13148
▁शिल्ड	-13149
▁हल्ला	-13150
मानसिंह	-13151
▁क्रिस्	-13152
▁पुगेकी	-13153
▁बिर्ता	-13154
▁माथिका	-13155
▁मुनिका	-13156
▁राख्यो	-13157
▁विगतमा	-13158
▁शिशुको	-13159
▁सिरिया	-13160
▁सुगौली	-13161
▁होइनन्	-13162
▁आमाबाबु	-13163
▁कमान्डर	-13164
▁गाभिएको	-13165
▁पौष्टिक	-13166
▁म्याचमा	-13167
▁लोखर्के	-13168
▁सन्धिमा	-13169
▁सहयोगको	-13170
ल्याण्डमा	-13171
▁जनगणनाको	-13172
▁पंक्षीको	-13173
▁पर्वतारो	-13174
▁पुर्याउन	-13175
▁विस्फोटक	-13176
▁शिक्षामा	-13177
▁हजुरबुबा	-13178
▁आमन्त्रित	-13179
▁पारम्परिक	-13180
▁भक्तपुरका	-13181
▁भक्तपुरको	-13182
▁सिद्धिचरण	-13183
▁आन्दोलनलाई	-13184
▁क्यालेन्डर	-13185
▁ग्यालेक्सी	-13186
▁ड्यनिएल्ले	-13187
▁तमिलनाडुको	-13188
▁बहुप्रसिद्ध	-13189
▁सिद्धान्तमा	-13190
▁स्टिलद्वारा	-13191
▁प्रतियोगिताका	-13192
ुण	-13193
ँमा	-13194
खेत	-13195
भाई	-13196
▁आब	-13197
▁एथ	-13198
▁नआ	-13199
गाँउ	-13200
र्थक	-13201
ल्दै	-13202
्युन	-13203
▁एमी	-13204
▁तता	-13205
▁दृश	-13206
▁नोब	-13207
▁यहु	-13208
▁६०६	-13209
गर्ने	-13210
न्तमा	-13211
पात्र	-13212
मीलाई	-13213
ष्कृत	-13214
्वाइस	-13215
▁कमाइ	-13216
▁गुजर	-13217
▁जस्ट	-13218
▁पदका	-13219
▁बीपी	-13220
▁महशु	-13221
▁रिसा	-13222
▁लर्ड	-13223
▁विष्	-13224
▁संभव	-13225
▁सर्ग	-13226
▁सुधा	-13227
्याङ्ग	-13228
▁इसलाम	-13229
▁एसियन	-13230
▁खोल्न	-13231
▁ग्लोब	-13232
▁घट्दै	-13233
▁जातिय	-13234
▁टेनिस	-13235
▁दुष्ट	-13236
▁नर्वे	-13237
▁परेमा	-13238
▁बढुवा	-13239
▁बिराम	-13240
▁भेगका	-13241
▁शताव्	-13242
▁साँखर	-13243
▁ह्यार	-13244
▁आइतबार	-13245
▁उत्खनन	-13246
▁खानाले	-13247
▁जोडेको	-13248
▁पर्याय	-13249
▁पाउन्ड	-13250
▁फुटबलर	-13251
▁मनमोहक	-13252
▁राजपुत	-13253
▁लेखनको	-13254
▁समयलाई	-13255
▁सम्शेर	-13256
▁कारणबाट	-13257
▁जडिबुटी	-13258
▁दिनदेखि	-13259
▁मानिएका	-13260
▁समेटेको	-13261
▁स्पाइडर	-13262
▁कार्मेला	-13263
▁गरिन्छन्	-13264
▁गुजरातको	-13265
▁छुट्याउन	-13266
▁देवतालाई	-13267
▁रिपब्लिक	-13268
▁व्यङ्ग्य	-13269
▁शिक्षाका	-13270
▁सङ्गठनले	-13271
▁कालिम्पोङ	-13272
▁प्रवेशिका	-13273
▁ब्राजिलको	-13274
▁महाधिवेशन	-13275
▁पुरस्कारमा	-13276
▁बालसाहित्य	-13277
▁उत्तरार्धमा	-13278
▁राष्ट्रपतिले	-13279
▁कार्यक्रमहरूको	-13280
▁विद्यार्थीहरूले	-13281
हम	-13282
ंडी	-13283
गाड	-13284
चुङ	-13285
तीत	-13286
पेड	-13287
शिर	-13288
शिव	-13289
षको	-13290
ौटे	-13291
▁९४	-13292
ईएको	-13293
ग्नि	-13294
तेको	-13295
दोको	-13296
वलको	-13297
▁असा	-13298
▁अौँ	-13299
▁घोड	-13300
▁चौर	-13301
▁जमी	-13302
▁धूम	-13303
▁मन्	-13304
▁रोश	-13305
▁लडे	-13306
प्रेस	-13307
हानको	-13308
िश्रम	-13309
▁कसले	-13310
▁काँच	-13311
▁घटेर	-13312
▁टर्म	-13313
▁टाउन	-13314
▁डेरा	-13315
▁धुवा	-13316
▁फ्ला	-13317
▁बीजा	-13318
▁भृगु	-13319
▁शंका	-13320
▁हारा	-13321
छुट्टै	-13322
भित्रै	-13323
हाम्मद	-13324
▁उत्सा	-13325
▁एकदिन	-13326
▁कन्नौ	-13327
▁कमेडी	-13328
▁कृतिक	-13329
▁जानकी	-13330
▁प्रवृ	-13331
▁बजाउन	-13332
▁बिताए	-13333
▁बेङ्ग	-13334
▁भन्यो	-13335
▁मोहित	-13336
▁याममा	-13337
▁रिलीज	-13338
▁विलास	-13339
▁संहार	-13340
▁सामसङ	-13341
▁सोसाइ	-13342
▁अग्रता	-13343
▁अपाङ्ग	-13344
▁अभिषेक	-13345
▁असम्भव	-13346
▁एलेक्स	-13347
▁ट्रम्प	-13348
▁देब्रे	-13349
▁नगर्नु	-13350
▁पक्षका	-13351
▁बर्लिन	-13352
▁बिष्णु	-13353
▁राउन्ड	-13354
▁वृन्दा	-13355
▁अलङ्कार	-13356
▁उन्नाइस	-13357
▁कानूनको	-13358
▁कोलोम्ब	-13359
▁तुलसीको	-13360
▁दीक्षित	-13361
▁प्रस्तो	-13362
▁बजारबाट	-13363
▁बुन्डेस	-13364
▁विक्रमा	-13365
▁सुधारको	-13366
▁स्वार्थ	-13367
▁स्विकार	-13368
▁अवस्थिति	-13369
▁उपयोगिता	-13370
▁खुट्टामा	-13371
▁छत्तीसगढ	-13372
▁प्रवक्ता	-13373
▁वर्णमाला	-13374
▁महासागरमा	-13375
▁रोमान्टिक	-13376
▁वर्षभन्दा	-13377
▁हिन्दुत्व	-13378
▁अनुमतिपत्र	-13379
▁रङ्गशालाको	-13380
▁वास्तविकता	-13381
▁गाविसहरूलाई	-13382
▁अर्थतन्त्रमा	-13383
▁विमानस्थलबाट	-13384
ंछ	-13385
गं	-13386
ढि	-13387
▁ो	-13388
दिप	-13389
फ्र	-13390
र्ल	-13391
ौटा	-13392
▁पड	-13393
टाइम	-13394
बायो	-13395
र्मन	-13396
लिगा	-13397
वरमा	-13398
षणको	-13399
▁कदर	-13400
▁चिउ	-13401
▁नवी	-13402
▁बाफ	-13403
▁३५०	-13404
ँचालो	-13405
ङ्सिन	-13406
न्धरा	-13407
म्प्र	-13408
▁आब्द	-13409
▁कपुर	-13410
▁कब्ज	-13411
▁जिवन	-13412
▁बानी	-13413
▁मेसी	-13414
▁१९१५	-13415
मात्रा	-13416
ियुक्त	-13417
▁क्याट	-13418
▁तर्जु	-13419
▁तेलगु	-13420
▁थप्दा	-13421
▁पार्छ	-13422
▁बेच्न	-13423
▁भाग्य	-13424
▁भिन्स	-13425
▁सप्ता	-13426
▁उनीहरु	-13427
▁चुचुरा	-13428
▁थपिएको	-13429
▁पार्दछ	-13430
▁फुस्रो	-13431
▁लोककथा	-13432
▁शिखरमा	-13433
▁शिवलाई	-13434
▁साधनको	-13435
ोपाध्याय	-13436
▁चिन्तित	-13437
▁मर्यादा	-13438
▁श्रीमान	-13439
▁सट्टामा	-13440
▁अन्तिममा	-13441
▁इजिप्टको	-13442
▁उपविजेता	-13443
▁किल्लामा	-13444
▁ढुङ्गाको	-13445
▁पारिश्रम	-13446
▁बनाउँछन्	-13447
▁युक्रेनी	-13448
▁राजवंशको	-13449
▁राज्यबाट	-13450
▁स्वयम्भू	-13451
▁अफ्रिकाका	-13452
▁क्याप्टेन	-13453
▁जीवनानन्द	-13454
▁रेस्लिङमा	-13455
▁व्यवसायको	-13456
▁अभिमुखिकरण	-13457
▁प्रतिबिम्ब	-13458
▁मुलुकहरूमा	-13459
▁पाकिस्तानले	-13460
▁अस्ट्रेलियामा	-13461
▁स्म्याकडाउनमा	-13462
कव	-13463
ंगो	-13464
चीन	-13465
देह	-13466
प्ल	-13467
फरक	-13468
फाई	-13469
म्य	-13470
्रल	-13471
▁..	-13472
▁अय	-13473
ख्वा	-13474
ग्रो	-13475
बापत	-13476
यसको	-13477
ेट्ट	-13478
्योङ	-13479
▁ईशा	-13480
▁झोल	-13481
▁दमा	-13482
▁मीर	-13483
▁राघ	-13484
▁शंक	-13485
▁सुस	-13486
▁हलु	-13487
लेपछि	-13488
▁कथित	-13489
▁गजुर	-13490
▁गरुड	-13491
▁दूता	-13492
▁फापर	-13493
▁बिका	-13494
▁लगाउ	-13495
▁वाली	-13496
▁विचल	-13497
▁विदा	-13498
▁१९११	-13499
शान्ति	-13500
ेट्सको	-13501
्रान्त	-13502
्रेडिट	-13503
▁अष्टा	-13504
▁तातोप	-13505
▁तैपनि	-13506
▁दृष्ट	-13507
▁धमारी	-13508
▁नाभिक	-13509
▁प्राइ	-13510
▁बम्बई	-13511
▁भ्यान	-13512
▁लद्दा	-13513
▁स्टेज	-13514
िमिडिया	-13515
▁आदिलाई	-13516
▁उद्धृत	-13517
▁कुनामा	-13518
▁चिनारी	-13519
▁चौधुरी	-13520
▁च्याले	-13521
▁जोगाउन	-13522
▁देवानी	-13523
▁पंक्ति	-13524
▁पञ्चमी	-13525
▁पूर्ति	-13526
▁प्रस्ट	-13527
▁प्राबि	-13528
▁फिफाले	-13529
▁बैठकले	-13530
▁वर्गीय	-13531
▁सीताको	-13532
▁सेवाले	-13533
▁स्टिफन	-13534
▁इलाकामा	-13535
▁उपाधिको	-13536
▁कुराहरु	-13537
▁क्रेडिट	-13538
▁गोरखाका	-13539
▁दृश्यको	-13540
▁धर्मलाई	-13541
▁बिस्कुट	-13542
▁यूरोपीय	-13543
▁विवादित	-13544
▁सकिएपछि	-13545
▁अख्तियार	-13546
▁गर्नेछन्	-13547
▁पात्रहरू	-13548
▁फाइनान्स	-13549
▁मान्छेले	-13550
▁समुद्रमा	-13551
▁निकुञ्जको	-13552
▁निकुञ्जमा	-13553
▁पशुपतिनाथ	-13554
▁बेरोजगारी	-13555
▁हर्षवर्धन	-13556
▁हातहतियार	-13557
▁अधिकारीहरू	-13558
▁न्यायपालिका	-13559
▁सेमिफाइनलमा	-13560
▁छुट्टाछुट्टै	-13561
▁पूर्वमन्त्री	-13562
फत	-13563
बस	-13564
ँदे	-13565
टेक	-13566
पले	-13567
हीं	-13568
▁कक	-13569
एसएस	-13570
छोरी	-13571
जामा	-13572
न्चे	-13573
पाले	-13574
बाली	-13575
सीसी	-13576
िङमा	-13577
िङ्ग	-13578
ेटको	-13579
▁अटल	-13580
▁आखि	-13581
▁घडी	-13582
▁झलक	-13583
▁डटर	-13584
▁डबल	-13585
▁भगव	-13586
▁६२०	-13587
▁६८८	-13588
पर्दो	-13589
बादको	-13590
भेन्ट	-13591
रालाई	-13592
र्नेल	-13593
वादमा	-13594
सत्ता	-13595
▁अनुभ	-13596
▁कण्ठ	-13597
▁कस्त	-13598
▁डाँक	-13599
▁दिपा	-13600
▁धाबी	-13601
▁निकी	-13602
▁बहुल	-13603
▁भर्स	-13604
▁भुमि	-13605
▁मंगल	-13606
▁सर्ट	-13607
▁सहजै	-13608
▁सानी	-13609
▁स्वे	-13610
▁१२००	-13611
▁१९०७	-13612
विनायक	-13613
▁आवेदन	-13614
▁काठका	-13615
▁गतिको	-13616
▁चाहने	-13617
▁थानको	-13618
▁धृष्ट	-13619
▁प्रदा	-13620
▁महशुस	-13621
▁आकारका	-13622
▁कथालाई	-13623
▁गरिँदै	-13624
▁छन्दमा	-13625
▁जोर्डन	-13626
▁टेक्नो	-13627
▁थापाका	-13628
▁धातुको	-13629
▁नपर्ने	-13630
▁फरकफरक	-13631
▁बाँसको	-13632
▁बायर्न	-13633
▁बुबाले	-13634
▁महानगर	-13635
▁मृगौला	-13636
▁लेखकको	-13637
▁विषाणु	-13638
▁शासनमा	-13639
▁शुरुमा	-13640
▁समाजिक	-13641
▁साक्षी	-13642
▁सालबाट	-13643
▁अनुशासन	-13644
▁एएफसीको	-13645
▁कौटिल्य	-13646
▁गन्धर्व	-13647
▁छापिएको	-13648
▁जन्मेकी	-13649
▁जिन्दगी	-13650
▁तपाईँको	-13651
▁फोर्ब्स	-13652
▁मानिसमा	-13653
▁युक्रेन	-13654
▁ल्यान्ड	-13655
▁सचिवालय	-13656
▁स्थानका	-13657
▁स्पेनिश	-13658
▁स्रोतको	-13659
क्षेत्रको	-13660
▁जनावरहरू	-13661
▁प्रशासित	-13662
▁मस्तिष्क	-13663
▁वामपन्थी	-13664
▁समर्थनमा	-13665
▁हरिद्वार	-13666
▁हानिकारक	-13667
▁गोल्डकपको	-13668
▁यिनीहरूले	-13669
▁सेमिफाइनल	-13670
▁उपकरणहरूको	-13671
▁गृहमन्त्री	-13672
▁अन्तरराष्ट्रिय	-13673
▁डब्ल्यूडब्ल्यूई	-13674
भ्	-13675
चमा	-13676
दूत	-13677
पाट	-13678
ानै	-13679
िले	-13680
ीया	-13681
▁आङ	-13682
▁सफ	-13683
एफसी	-13684
गिरी	-13685
जीमा	-13686
न्पो	-13687
प्पी	-13688
बीको	-13689
म्का	-13690
रिदू	-13691
र्दन	-13692
ेरले	-13693
▁आधि	-13694
▁इभा	-13695
▁खपत	-13696
▁खलि	-13697
▁चलि	-13698
▁जता	-13699
▁जयन	-13700
▁जाइ	-13701
▁झनै	-13702
▁डोर	-13703
▁तमा	-13704
▁थरी	-13705
▁नखा	-13706
▁पिङ	-13707
▁फिर	-13708
▁यदी	-13709
पर्धा	-13710
र्जिन	-13711
ारोपण	-13712
ोनिया	-13713
▁आचार	-13714
▁आदिक	-13715
▁इन्स	-13716
▁किमि	-13717
▁कोटा	-13718
▁क्रु	-13719
▁गोवा	-13720
▁घृणा	-13721
▁जाँड	-13722
▁जादु	-13723
▁तिरु	-13724
▁धिमा	-13725
▁पाला	-13726
▁ब्लू	-13727
▁मयमन	-13728
▁रोमी	-13729
▁वरुण	-13730
▁हिजो	-13731
िहरूको	-13732
▁अक्षय	-13733
▁एन्जे	-13734
▁कच्ची	-13735
▁क्याम	-13736
▁क्लिन	-13737
▁छेत्र	-13738
▁छोड्न	-13739
▁जिवित	-13740
▁ड्राइ	-13741
▁तिर्न	-13742
▁धितोप	-13743
▁नर्सि	-13744
▁फल्ने	-13745
▁भत्का	-13746
▁मर्ने	-13747
▁मुमिन	-13748
▁वाजपे	-13749
▁विमेन	-13750
गुप्तको	-13751
▁अन्यथा	-13752
▁उतिर्ण	-13753
▁उन्नति	-13754
▁कठिनाइ	-13755
▁कबड्डी	-13756
▁खेतीको	-13757
▁चित्रक	-13758
▁चित्रा	-13759
▁जस्तैः	-13760
▁देखेको	-13761
▁निर्मल	-13762
▁निवेदन	-13763
▁बढाएको	-13764
▁बेग्लै	-13765
▁ब्राम्	-13766
▁रोगहरू	-13767
▁लिएपछि	-13768
▁शाखाको	-13769
न्सिस्को	-13770
▁आत्मकथा	-13771
▁गोरखपुर	-13772
▁चन्द्रा	-13773
▁टाउकोमा	-13774
▁तर्जुमा	-13775
▁दुर्व्य	-13776
▁नभएसम्म	-13777
▁पक्षबाट	-13778
▁पन्जाबी	-13779
▁पृष्ठमा	-13780
▁फैलिएका	-13781
▁भेटिएका	-13782
▁राजवंशी	-13783
▁विजयपुर	-13784
▁शासकहरू	-13785
▁हत्यारा	-13786
▁अभयारण्य	-13787
▁इन्द्रको	-13788
▁गीतहरूमा	-13789
▁त्यतिखेर	-13790
▁परिदृश्य	-13791
▁परिषद्का	-13792
▁परिषद्ले	-13793
▁प्रतिपदा	-13794
▁प्रशिद्ध	-13795
▁समाजसेवी	-13796
▁सरकारसँग	-13797
▁त्यसपछिको	-13798
▁भ्लादिमिर	-13799
▁माओवादीको	-13800
▁वास्तुकला	-13801
▁पदोन्नतिमा	-13802
▁पुरस्कारका	-13803
▁धर्मशास्त्र	-13804
▁सदस्यहरूलाई	-13805
▁क्षेत्रभित्र	-13806
षक	-13807
ंदर	-13808
ंधन	-13809
दूर	-13810
परे	-13811
वहन	-13812
ेटी	-13813
▁ठे	-13814
▁रत	-13815
▁लल	-13816
घण्ट	-13817
जिया	-13818
टिभी	-13819
ड्के	-13820
नुका	-13821
पर्य	-13822
बिसे	-13823
मानै	-13824
याले	-13825
सबाट	-13826
स्टी	-13827
ियों	-13828
▁आरा	-13829
▁उषा	-13830
▁ओपे	-13831
▁खोक	-13832
▁गदा	-13833
▁डेन	-13834
▁दहन	-13835
▁दूत	-13836
▁बूढ	-13837
▁हान	-13838
▁ह्र	-13839
▁१२५	-13840
▁६४७	-13841
पुल्स	-13842
फोनको	-13843
स्टको	-13844
ोग्रा	-13845
▁काठे	-13846
▁कौशल	-13847
▁गौरा	-13848
▁चल्छ	-13849
▁जाना	-13850
▁जिला	-13851
▁ट्रु	-13852
▁डोरी	-13853
▁दैवी	-13854
▁बर्न	-13855
▁बायो	-13856
▁बिजय	-13857
▁साँघ	-13858
▁सैयद	-13859
▁सौते	-13860
▁हिसा	-13861
▁१९०६	-13862
पुछ्रे	-13863
मोर्चा	-13864
र्योदय	-13865
▁अक्टु	-13866
▁अक्टू	-13867
▁अध्यन	-13868
▁अनुपा	-13869
▁जान्न	-13870
▁ट्रेड	-13871
▁तिहाई	-13872
▁दाउरा	-13873
▁नरहरि	-13874
▁बोधिस	-13875
▁मिलाई	-13876
▁रहिन्	-13877
▁विषयक	-13878
▁हुनका	-13879
▁अमात्य	-13880
▁अर्चना	-13881
▁उन्मुख	-13882
▁एकिकृत	-13883
▁खाइन्छ	-13884
▁चुचुरो	-13885
▁जुत्ता	-13886
▁तालहरू	-13887
▁दक्षता	-13888
▁द्रविड	-13889
▁नसकिने	-13890
▁पुष्पक	-13891
▁बनेपछि	-13892
▁बिबिसी	-13893
▁मारेको	-13894
▁रिपब्ल	-13895
▁वर्णमा	-13896
▁विकृति	-13897
▁शब्दका	-13898
▁शुक्ला	-13899
▁स्तुति	-13900
▁हुनुको	-13901
पुच्छ्रे	-13902
▁अलेक्जे	-13903
▁उन्मूलन	-13904
▁किराँती	-13905
▁क्यान्स	-13906
▁देवीलाई	-13907
▁धर्मराज	-13908
▁पुराणको	-13909
▁प्रवासी	-13910
▁प्रशासक	-13911
▁बर्दघाट	-13912
▁भइरहेका	-13913
▁मध्येका	-13914
▁वाराणसी	-13915
▁विख्यात	-13916
▁समूहहरू	-13917
▁साम्प्र	-13918
▁अध्ययनमा	-13919
▁कृष्णलाई	-13920
▁चरित्रको	-13921
▁निस्केको	-13922
▁स्मृतिमा	-13923
▁हात्तीको	-13924
▁हास्यव्य	-13925
▁गुणस्तरीय	-13926
▁निर्वासित	-13927
▁प्रकृतिका	-13928
▁प्राबिधिक	-13929
▁साम्यवादी	-13930
▁हाइड्रोजन	-13931
▁पुनरावलोकन	-13932
▁व्युत्पन्न	-13933
▁शृङ्खलाहरू	-13934
▁व्युत्पत्ति	-13935
▁ग्रीष्मकालीन	-13936
▁महत्त्वपुर्ण	-13937
षद	-13938
ोड	-13939
ध्द	-13940
▁धम	-13941
▁नट	-13942
▁रख	-13943
कहाँ	-13944
खानी	-13945
थोकी	-13946
देशक	-13947
फिल्	-13948
बर्न	-13949
ब्सन	-13950
मेरा	-13951
वाडी	-13952
सारी	-13953
स्टे	-13954
हहरू	-13955
▁आनु	-13956
▁उपर	-13957
▁किक	-13958
▁कोई	-13959
▁फजल	-13960
▁बहन	-13961
▁बाथ	-13962
▁बिउ	-13963
▁भेड	-13964
▁लास	-13965
▁वटै	-13966
▁हरण	-13967
च्युत	-13968
दन्ति	-13969
िन्हो	-13970
▁उज्ज	-13971
▁कुर्	-13972
▁चित्	-13973
▁चेली	-13974
▁जगदी	-13975
▁डेभल	-13976
▁दौलत	-13977
▁निशा	-13978
▁पेसा	-13979
▁बनोट	-13980
▁बिसं	-13981
▁भनिए	-13982
▁माले	-13983
▁मिठा	-13984
▁सक्त	-13985
▁सवाल	-13986
▁सेने	-13987
स्तीको	-13988
िनेन्ट	-13989
▁अमेजन	-13990
▁अवलोक	-13991
▁आवामी	-13992
▁इकोनो	-13993
▁कटौती	-13994
▁घर्ती	-13995
▁चलिरह	-13996
▁छायाँ	-13997
▁जर्सी	-13998
▁जीवको	-13999
▁जेनेर	-14000
▁डिम्ब	-14001
▁तिरहु	-14002
▁नीमको	-14003
▁भेट्ट	-14004
▁मकालु	-14005
▁मकैको	-14006
▁मिर्ग	-14007
▁मोर्ग	-14008
▁म्याग	-14009
▁यहुदी	-14010
▁रूपको	-14011
▁ससाना	-14012
▁सुचार	-14013
द्वारको	-14014
लबहादुर	-14015
▁आदिकवि	-14016
▁इन्डिज	-14017
▁खाडीमा	-14018
▁खुकुरी	-14019
▁गोपनीय	-14020
▁जित्दा	-14021
▁डटकमले	-14022
▁दिलाउन	-14023
▁पकाउने	-14024
▁पूर्वक	-14025
▁बरिशाल	-14026
▁भ्यागु	-14027
▁रावणको	-14028
▁सन्तति	-14029
▁सिन्हा	-14030
▁सुँगुर	-14031
▁सुस्ता	-14032
▁कर्मचार	-14033
▁क्षत्री	-14034
▁ग्रामिण	-14035
▁नलाग्ने	-14036
▁फाल्गुण	-14037
▁बास्केट	-14038
▁भ्रमणको	-14039
▁मल्ललाई	-14040
▁माइकल्स	-14041
▁स्तनपान	-14042
▁स्तोत्र	-14043
▁एकीकरणको	-14044
▁निरपेक्ष	-14045
▁प्रायोजन	-14046
▁नेताहरूले	-14047
▁परीक्षामा	-14048
▁विज्ञानका	-14049
▁क्वाटरफाइन	-14050
▁ज्वालामुखी	-14051
▁वेबसाइटहरू	-14052
▁चाँगुनारायण	-14053
▁याज्ञवल्क्य	-14054
▁रवीन्द्रनाथ	-14055
▁वेबसाइटहरूको	-14056
उर	-14057
य्	-14058
कुम	-14059
ठको	-14060
ष्प	-14061
सके	-14062
होम	-14063
▁झै	-14064
उँथे	-14065
उछन्	-14066
एफको	-14067
णीको	-14068
ध्ये	-14069
मिला	-14070
यामा	-14071
सिको	-14072
ियाम	-14073
िसको	-14074
▁उछि	-14075
▁एफए	-14076
▁खाए	-14077
▁जन्	-14078
▁जाँ	-14079
▁दाद	-14080
▁पढा	-14081
▁पने	-14082
▁बटु	-14083
▁वेल	-14084
▁शैल	-14085
▁सरि	-14086
कासित	-14087
तीर्थ	-14088
बिधान	-14089
र्सले	-14090
वादका	-14091
ेकाले	-14092
▁कनका	-14093
▁घाटी	-14094
▁छोटक	-14095
▁नर्स	-14096
▁फुल्	-14097
▁भावी	-14098
▁श्वा	-14099
▁होचो	-14100
▁१९०९	-14101
▁१९१६	-14102
बमोजिम	-14103
स्थामा	-14104
▁उठाएर	-14105
▁एक्लो	-14106
▁एयरला	-14107
▁कर्मा	-14108
▁काँचो	-14109
▁कानमा	-14110
▁कुलीन	-14111
▁खाँदा	-14112
▁खेतमा	-14113
▁गरेकि	-14114
▁जाँदै	-14115
▁थकाली	-14116
▁दलहरू	-14117
▁परेवा	-14118
▁पाइला	-14119
▁बायदु	-14120
▁भिडिओ	-14121
▁मतहरू	-14122
▁मष्टो	-14123
▁मुजफ्	-14124
▁मेरिल	-14125
▁मैथिल	-14126
▁रोहित	-14127
▁लड्ने	-14128
▁सङ्गम	-14129
▁समिती	-14130
▁सलमान	-14131
▁साइकल	-14132
▁हातको	-14133
कांक्षा	-14134
▁आत्मनि	-14135
▁किशोरी	-14136
▁खलङ्गा	-14137
▁गणेशको	-14138
▁जित्दै	-14139
▁नसक्दा	-14140
▁पठाएको	-14141
▁बुझ्ने	-14142
▁मारिया	-14143
▁विशेषा	-14144
▁विषयका	-14145
▁स्विट्	-14146
▁इन्स्टा	-14147
▁कक्षामा	-14148
▁गणेशमान	-14149
▁ग्रान्ड	-14150
▁चाँदीको	-14151
▁फ्याक्ट	-14152
▁मैदानको	-14153
▁सकिँदैन	-14154
▁अभिप्राय	-14155
▁असामान्य	-14156
▁आयोजनाको	-14157
▁खेलकुदको	-14158
▁तानाशाही	-14159
▁हुन्छिन्	-14160
▁कारद्वारा	-14161
▁जनसाङ्ख्य	-14162
▁निबन्धकार	-14163
▁भियतनामको	-14164
▁संरक्षणमा	-14165
▁संस्थानको	-14166
▁समस्याहरू	-14167
▁स्वस्थानी	-14168
▁इलेक्ट्रोन	-14169
▁पारिश्रमिक	-14170
▁पूर्वोत्तर	-14171
▁प्रणालीलाई	-14172
▁विधिपूर्वक	-14173
▁सक्नुहुन्छ	-14174
▁अनुप्रयोगको	-14175
▁खेलाडीहरूले	-14176
▁द्रोणाचार्य	-14177
▁इन्स्टिच्युट	-14178
▁रोनाल्डिन्हो	-14179
▁इन्डोनेसियाको	-14180
▁अन्तर्वार्तामा	-14181
▁सर्वसाधारणहरूको	-14182
फू	-14183
ूस	-14184
इरो	-14185
पोल	-14186
बना	-14187
लीप	-14188
शको	-14189
शिप	-14190
ाइल	-14191
िएच	-14192
िकै	-14193
ठूला	-14194
मोहर	-14195
राइड	-14196
हाउस	-14197
ितिक	-14198
▁अनी	-14199
▁एभर	-14200
▁औषत	-14201
▁घटा	-14202
▁नली	-14203
▁पकड	-14204
▁पूँ	-14205
▁सतल	-14206
▁सरे	-14207
▁६४९	-14208
चेतना	-14209
लेन्स	-14210
▁किंग	-14211
▁डर्ट	-14212
▁ताकि	-14213
▁धुलि	-14214
▁नवाब	-14215
▁नागी	-14216
▁बाबर	-14217
▁भीष्	-14218
▁मीठो	-14219
▁रेणु	-14220
▁सिया	-14221
▁हैजा	-14222
▁अँध्य	-14223
▁इब्रा	-14224
▁कच्चा	-14225
▁कोइली	-14226
▁चौडाई	-14227
▁पढ्दा	-14228
▁पोर्न	-14229
▁बललाई	-14230
▁मारेर	-14231
▁रहोस्	-14232
▁शम्भु	-14233
डेलधुरा	-14234
▁ऋषिकेश	-14235
▁जनश्रु	-14236
▁जेन्डे	-14237
▁जोर्नी	-14238
▁टर्मिन	-14239
▁नाचगान	-14240
▁प्रोटो	-14241
▁बताउँछ	-14242
▁मुखिया	-14243
▁राखिने	-14244
▁रोकथाम	-14245
▁साक्षा	-14246
▁सुकेको	-14247
▁अक्षरको	-14248
▁असाधारण	-14249
▁आकस्मिक	-14250
▁कत्युरी	-14251
▁क्लासिक	-14252
▁परिपक्व	-14253
▁बैङ्कका	-14254
▁मिसिन्छ	-14255
▁रायमाझी	-14256
▁लागेपछि	-14257
▁लाग्दैन	-14258
▁विवाहित	-14259
▁वैश्विक	-14260
▁समयावधि	-14261
▁इन्द्रिय	-14262
▁कुमिल्ला	-14263
▁छोराछोरी	-14264
▁नवदुर्गा	-14265
▁बिद्यालय	-14266
▁राज्यपाल	-14267
▁वार्षिको	-14268
▁संरचनाको	-14269
▁स्थितिको	-14270
▁नेपालीहरू	-14271
▁प्रचोदयात	-14272
▁रोलिन्सले	-14273
▁विषयहरूमा	-14274
▁सम्पादनथन	-14275
▁अपेक्षाकृत	-14276
▁आइन्स्टाइन	-14277
▁नारायणहिटी	-14278
▁फोटोग्राफी	-14279
▁यिनीहरूलाई	-14280
▁सेवानिवृत्त	-14281
▁ग्राहकहरूलाई	-14282
▁चलचित्रहरूको	-14283
▁तेस्रोलिङ्गी	-14284
▁अफगानिस्तानको	-14285
जम	-14286
हस	-14287
ंजन	-14288
थित	-14289
पाङ	-14290
लोस	-14291
सिप	-14292
▁मई	-14293
ग्रि	-14294
ग्रे	-14295
न्थो	-14296
ललाई	-14297
शिमा	-14298
स्के	-14299
ालले	-14300
▁अवध	-14301
▁ओबा	-14302
▁छेड	-14303
▁देह	-14304
▁पस्	-14305
▁बढे	-14306
▁मेक	-14307
▁यास	-14308
▁रेट	-14309
▁रेन	-14310
▁रेम	-14311
▁साव	-14312
तिरको	-14313
द्वरा	-14314
बंधीय	-14315
भद्रा	-14316
सेन्स	-14317
ियरमा	-14318
्याउन	-14319
▁अमला	-14320
▁ईस्ट	-14321
▁काले	-14322
▁खैनी	-14323
▁चराच	-14324
▁चौथा	-14325
▁जलमा	-14326
▁जेने	-14327
▁ब्लु	-14328
▁रिचा	-14329
▁शहिद	-14330
▁साधु	-14331
▁सोहि	-14332
▁१८८५	-14333
▁अखबार	-14334
▁अर्पण	-14335
▁खाएमा	-14336
▁जम्मु	-14337
▁तटस्थ	-14338
▁दृष्य	-14339
▁धरहरा	-14340
▁फुटकर	-14341
▁फेदमा	-14342
▁बगेको	-14343
▁बाजार	-14344
▁मुकाम	-14345
▁मुरली	-14346
▁म्याट	-14347
▁यौगिक	-14348
▁रोगमा	-14349
▁रोमान	-14350
▁सक्छन	-14351
▁सस्तो	-14352
▁सान्द	-14353
▁सापको	-14354
▁साबिक	-14355
▁सुर्य	-14356
▁सेनको	-14357
क्ष्यमा	-14358
न्वयनमा	-14359
रबहादुर	-14360
▁आश्वास	-14361
▁कक्षमा	-14362
▁गुफामा	-14363
▁चामलको	-14364
▁ढाकाको	-14365
▁दुखेको	-14366
▁द्धारा	-14367
▁प्लेयर	-14368
▁बाबुको	-14369
▁भित्रै	-14370
▁मञ्चको	-14371
▁मानवको	-14372
▁शासकको	-14373
▁शिवाजी	-14374
▁श्रुति	-14375
▁क्षयरोग	-14376
▁गोरखाको	-14377
▁जडीबुटी	-14378
▁जर्जिया	-14379
▁टर्बाइन	-14380
▁पन्छीको	-14381
▁पौड्याल	-14382
▁मिश्रको	-14383
▁वीरगञ्ज	-14384
▁सँगसँगै	-14385
▁समर्थित	-14386
▁साथीहरू	-14387
▁गर्दछिन्	-14388
▁नागरिकको	-14389
▁परमेश्वर	-14390
▁प्रेमिका	-14391
▁मुद्दाको	-14392
▁मोहन्याल	-14393
▁विराजमान	-14394
▁सिनेमामा	-14395
▁कम्प्यूटर	-14396
▁नाइट्रोजन	-14397
▁बेङ्क्सले	-14398
▁राधाकृष्ण	-14399
▁विश्वभरका	-14400
▁सिक्किमका	-14401
▁प्राप्तिको	-14402
▁पत्रपत्रिका	-14403
▁हिन्दुहरूको	-14404
▁साम्प्रदायिक	-14405
सय	-14406
शरण	-14407
हेल	-14408
▁जप	-14409
▁डन	-14410
▁यह	-14411
▁हँ	-14412
कृती	-14413
चर्य	-14414
टाका	-14415
यज्ञ	-14416
लिको	-14417
वरले	-14418
वाडा	-14419
वीको	-14420
▁आदर	-14421
▁कफी	-14422
▁टोर	-14423
▁पग्	-14424
▁बैं	-14425
▁बोन	-14426
▁भाउ	-14427
▁याम	-14428
▁१०९	-14429
ज्जित	-14430
डिखेल	-14431
द्रिक	-14432
न्दरी	-14433
रान्त	-14434
र्टले	-14435
वेदार	-14436
ेरेसन	-14437
▁अप्ट	-14438
▁औंठी	-14439
▁काटि	-14440
▁कुरो	-14441
▁गोपी	-14442
▁ग्रि	-14443
▁तराइ	-14444
▁फरेन	-14445
▁बसाइ	-14446
▁मलेश	-14447
▁मिनि	-14448
▁रकेट	-14449
▁रोशन	-14450
▁र्या	-14451
▁लोका	-14452
▁वराह	-14453
▁सर्च	-14454
▁सिलग	-14455
▁सोना	-14456
▁१८१४	-14457
▁५०००	-14458
शिक्षा	-14459
ीहरूको	-14460
्युनिक	-14461
▁अफगान	-14462
▁इथियो	-14463
▁उम्मे	-14464
▁उरिदू	-14465
▁कलिलो	-14466
▁कोभिड	-14467
▁तलेजु	-14468
▁फ्यान	-14469
▁भनेकी	-14470
▁रहनेछ	-14471
▁वैश्य	-14472
▁साहिब	-14473
▁सिरिज	-14474
▁स्कोर	-14475
▁हेलिक	-14476
▁अधिकरण	-14477
▁आवस्यक	-14478
▁ऋषिहरु	-14479
▁कामहरू	-14480
▁खोज्दा	-14481
▁चिन्ने	-14482
▁डटकमको	-14483
▁पोथ्रा	-14484
▁फोर्ब्	-14485
▁बजेटमा	-14486
▁मद्रास	-14487
▁मनमोहन	-14488
▁मुलुकी	-14489
▁लैजाने	-14490
▁ल्हासा	-14491
▁सपनामा	-14492
▁साहसिक	-14493
▁सिकारी	-14494
▁हरिवंश	-14495
▁अदालतका	-14496
▁अभिभावक	-14497
▁आइरहेका	-14498
▁काँग्रे	-14499
▁क्विन्स	-14500
▁जोखिममा	-14501
▁देखाउँछ	-14502
▁देखाएका	-14503
▁परिश्रम	-14504
▁बाहिरका	-14505
▁मोरक्को	-14506
▁म्युनिख	-14507
▁विश्ववि	-14508
▁सफलताको	-14509
न्सद्वारा	-14510
▁अजरबैजान	-14511
▁ओखलढुंगा	-14512
▁जनगणनामा	-14513
▁जबरजस्ती	-14514
▁डडेलधुरा	-14515
▁नेटालिया	-14516
▁बर्खास्त	-14517
▁भूमिकाका	-14518
▁रङ्गमञ्च	-14519
▁रेडियोमा	-14520
▁लामखुट्ट	-14521
▁वृद्धिको	-14522
▁सङ्ग्राम	-14523
▁सन्तुष्ट	-14524
▁सुन्निने	-14525
▁घटनाहरूको	-14526
▁तेलङ्गाना	-14527
▁दिदीबहिनी	-14528
▁द्रव्यमान	-14529
▁प्रकाशनमा	-14530
▁प्रशासनको	-14531
▁प्रान्तीय	-14532
▁बास्केटबल	-14533
▁बैज्ञानिक	-14534
▁महामारीको	-14535
▁राजपत्रमा	-14536
▁उपत्यकालाई	-14537
▁महेन्द्रनगर	-14538
▁शताब्दीसम्म	-14539
▁उपमहाद्वीपको	-14540
▁ब्याक्टेरिया	-14541
▁राष्ट्रप्रमुख	-14542
जेन	-14543
जोन	-14544
ज्न	-14545
फुट	-14546
वाच	-14547
ुमा	-14548
▁एर	-14549
▁कछ	-14550
किया	-14551
गोडा	-14552
चुली	-14553
णक्य	-14554
ब्रु	-14555
राका	-14556
रोटी	-14557
संस्	-14558
सियन	-14559
स्नी	-14560
▁कोस	-14561
▁चिल	-14562
▁जेफ	-14563
▁दमक	-14564
▁नजा	-14565
▁वरी	-14566
▁सुक	-14567
▁१६०	-14568
कोटको	-14569
रूपले	-14570
ृष्टि	-14571
▁अनाव	-14572
▁आजभो	-14573
▁एरिक	-14574
▁कामा	-14575
▁केला	-14576
▁गएकी	-14577
▁गिल्	-14578
▁चोटी	-14579
▁पठाई	-14580
▁प्रग	-14581
▁माग्	-14582
▁मोजा	-14583
▁यक्ष	-14584
▁राउत	-14585
▁राता	-14586
▁रारा	-14587
▁लहरा	-14588
कारिता	-14589
ल्लाको	-14590
हुँदैन	-14591
िस्तान	-14592
ुरेन्ट	-14593
▁अनुपम	-14594
▁टाइगर	-14595
▁ढुङ्ग	-14596
▁तहहरू	-14597
▁त्रुट	-14598
▁नहुनु	-14599
▁पखाला	-14600
▁पार्थ	-14601
▁पेन्ट	-14602
▁बतायो	-14603
▁भुट्ट	-14604
▁मध्या	-14605
▁रुखमा	-14606
▁संघका	-14607
▁समसाम	-14608
▁सल्ला	-14609
द्वारमा	-14610
मार्गको	-14611
▁अश्वत्	-14612
▁कलेजको	-14613
▁केटीको	-14614
▁क्वयेर	-14615
▁घुम्ने	-14616
▁छन्दको	-14617
▁जन्मनु	-14618
▁बलिदान	-14619
▁मृतकको	-14620
▁लिनक्स	-14621
▁वहाँको	-14622
▁शैलीका	-14623
▁सर्पले	-14624
▁सान्नी	-14625
▁सिड्नी	-14626
टेनमेन्ट	-14627
▁अक्टूबर	-14628
▁अङ्गहरू	-14629
▁अधिनायक	-14630
▁किनभनें	-14631
▁खोलिएको	-14632
▁जग्गामा	-14633
▁जरिवाना	-14634
▁पछाडिको	-14635
▁पाराग्व	-14636
▁बकुल्ला	-14637
▁मानिसका	-14638
▁यसभन्दा	-14639
▁योगमाया	-14640
▁रहमानको	-14641
▁रूपरेखा	-14642
▁सम्हाले	-14643
▁सुक्ष्म	-14644
▁सुनिन्छ	-14645
पङ्क्तिको	-14646
▁कोरियामा	-14647
▁चित्रकला	-14648
▁दिनाजपुर	-14649
▁निमन्त्र	-14650
▁प्रतिकूल	-14651
▁बुढाथोकी	-14652
▁बेलायतका	-14653
▁मन्त्रको	-14654
▁संलग्नता	-14655
▁सुन्दरता	-14656
▁सृष्टिको	-14657
▁अन्त्यतिर	-14658
▁इतिहासलाई	-14659
▁उत्तरतर्फ	-14660
▁नागार्जुन	-14661
▁पर्यटकहरू	-14662
▁माथवरसिंह	-14663
▁व्यवहारमा	-14664
▁सार्लेटले	-14665
▁हिंसात्मक	-14666
▁वस्तुहरूको	-14667
▁उपनिषदहरूको	-14668
▁पदार्थहरूको	-14669
▁प्रस्तावलाई	-14670
▁राष्ट्रपतीय	-14671
▁श्रीकृष्णले	-14672
▁राष्ट्रव्यापी	-14673
कत	-14674
बत	-14675
ंडर	-14676
कृय	-14677
गरण	-14678
शमा	-14679
्रय	-14680
▁आड	-14681
▁ओप	-14682
▁शस	-14683
आरसी	-14684
ठ्ठी	-14685
मेको	-14686
र्टो	-14687
र्मु	-14688
्नको	-14689
▁असि	-14690
▁आइए	-14691
▁उडि	-14692
▁खोर	-14693
▁गौत	-14694
▁घुइ	-14695
▁देन	-14696
▁पख्	-14697
▁पनी	-14698
▁पेड	-14699
▁बिम	-14700
▁मसा	-14701
▁यती	-14702
▁लोह	-14703
▁समक	-14704
परेका	-14705
मित्र	-14706
ष्ठित	-14707
▁अलग्	-14708
▁छाडे	-14709
▁पालो	-14710
▁बर्ड	-14711
▁बाजे	-14712
▁मर्क	-14713
▁हुये	-14714
▁३०००	-14715
णिर्मा	-14716
श्लेषण	-14717
▁अन्धा	-14718
▁चम्पा	-14719
▁जन्मे	-14720
▁झुन्ड	-14721
▁नेवाः	-14722
▁पटकको	-14723
▁पाञ्च	-14724
▁पादरी	-14725
▁बस्दा	-14726
▁भन्थे	-14727
▁रोगले	-14728
▁वर्मा	-14729
▁सालिक	-14730
▁हिउँद	-14731
संस्कार	-14732
▁अनिकाल	-14733
▁इथियोप	-14734
▁ईन्जिन	-14735
▁किशोरा	-14736
▁खुद्रा	-14737
▁चाणक्य	-14738
▁नदीलाई	-14739
▁परास्त	-14740
▁पुष्कर	-14741
▁मार्शल	-14742
▁माहिला	-14743
▁विभूति	-14744
▁श्रीनि	-14745
▁संसदले	-14746
▁सरोकार	-14747
न्यायाधि	-14748
▁अन्धकार	-14749
▁एकअर्का	-14750
▁गायत्री	-14751
▁चिलाउने	-14752
▁त्यसैको	-14753
▁नमस्कार	-14754
▁नेपालकी	-14755
▁पारिजात	-14756
▁फर्केका	-14757
▁बनाउँदछ	-14758
▁बिहारमा	-14759
▁म्यूजिक	-14760
▁युरोपका	-14761
▁रास्ट्र	-14762
▁विषयहरू	-14763
▁समावेशी	-14764
▁सोसाइटी	-14765
▁हरियाली	-14766
▁अग्रगामी	-14767
▁किल्लाको	-14768
▁डर्टमन्ड	-14769
▁डिप्लोमा	-14770
▁पाठेघरको	-14771
▁हाराहारी	-14772
▁कार्यवाहक	-14773
▁व्यक्तिका	-14774
▁संस्थालाई	-14775
▁सञ्चालनको	-14776
▁आक्रमणकारी	-14777
▁उत्पत्तिको	-14778
▁धर्मग्रन्थ	-14779
▁महिलाहरूमा	-14780
▁सार्वभौमिक	-14781
▁कार्यक्रमका	-14782
▁प्रक्रियाको	-14783
▁फ्रान्सिस्को	-14784
▁राष्ट्रहरूले	-14785
▁अर्जेन्टिनाको	-14786
धो	-14787
चिक	-14788
फिस	-14789
बिल	-14790
भ्य	-14791
समय	-14792
▁आन	-14793
▁फस	-14794
▁शक	-14795
उन्ट	-14796
टाणु	-14797
ढीको	-14798
नेता	-14799
प्पु	-14800
भाले	-14801
र्घा	-14802
वाचक	-14803
िकीय	-14804
▁कुक	-14805
▁खेर	-14806
▁गये	-14807
▁गरम	-14808
▁छिर	-14809
▁पदम	-14810
▁फाई	-14811
▁बेग	-14812
▁मौल	-14813
▁याङ	-14814
▁लगे	-14815
▁शुक	-14816
▁समि	-14817
ङ्गत्	-14818
न्वित	-14819
र्षिक	-14820
विराम	-14821
स्टेर	-14822
ोपेली	-14823
▁अप्ठ	-14824
▁कोटि	-14825
▁खुल्	-14826
▁गोसा	-14827
▁चेतन	-14828
▁छोडी	-14829
▁टोटन	-14830
▁नाँच	-14831
▁नाटो	-14832
▁नृत्	-14833
▁पुल्	-14834
▁प्री	-14835
▁भाइर	-14836
▁भाडा	-14837
▁भुत्	-14838
▁मच्च	-14839
▁मन्न	-14840
▁मस्क	-14841
▁सर्क	-14842
▁सेतु	-14843
▁हेरी	-14844
उँछिन्	-14845
देवीका	-14846
स्तम्भ	-14847
स्थलको	-14848
स्परिक	-14849
▁अफ्री	-14850
▁उत्ति	-14851
▁ओडिशा	-14852
▁कनकाई	-14853
▁कमलको	-14854
▁गुलाम	-14855
▁गोलले	-14856
▁जगतको	-14857
▁डिजेल	-14858
▁दङ्गा	-14859
▁बच्चन	-14860
▁बाघको	-14861
▁ब्रोड	-14862
▁मरेको	-14863
▁यिनमा	-14864
▁रुसको	-14865
▁लण्डन	-14866
▁विधवा	-14867
बायोटिक	-14868
स्थानमा	-14869
▁ईतिहास	-14870
▁एनिमेट	-14871
▁किन्तु	-14872
▁खतरामा	-14873
▁खोज्दै	-14874
▁जहाजको	-14875
▁झापाको	-14876
▁टिमलाई	-14877
▁पत्रको	-14878
▁परजीवी	-14879
▁प्रदीप	-14880
▁बालकको	-14881
▁बुवाको	-14882
▁भएकोमा	-14883
▁मुक्तक	-14884
▁मुल्या	-14885
▁रचनाको	-14886
▁राखेकी	-14887
▁विनायक	-14888
▁सकेपछि	-14889
▁सन्थाल	-14890
▁सहितका	-14891
▁सुरूमा	-14892
▁सौतेनी	-14893
▁हङ्गेर	-14894
▁हाल्ने	-14895
▁हावामा	-14896
▁अस्पष्ट	-14897
▁चिस्यान	-14898
▁चेतनाको	-14899
▁बुझाउने	-14900
▁बोर्डको	-14901
▁रहेकोले	-14902
▁विमानमा	-14903
▁विषाक्त	-14904
▁वैचारिक	-14905
▁संग्राम	-14906
▁संबिधान	-14907
▁सिफारिश	-14908
▁हङ्गेरी	-14909
▁हजुरआमा	-14910
▁हटाइएको	-14911
ङ्गत्ब्सन	-14912
शास्त्रका	-14913
सिडब्ल्यू	-14914
▁आइपुग्दा	-14915
▁न्यायालय	-14916
▁पुर्णिमा	-14917
▁बढिरहेको	-14918
▁बेवास्ता	-14919
▁राजगद्दी	-14920
▁संचालनमा	-14921
▁समसामयिक	-14922
▁सुविधाको	-14923
▁हुँदैनन्	-14924
▁हुनुभएको	-14925
कर्ताहरूले	-14926
▁तस्वीरहरू	-14927
▁देवकोटाको	-14928
▁पार्टीलाई	-14929
▁फ्रान्सका	-14930
▁बालकुमारी	-14931
▁विश्वासको	-14932
▁समुदायलाई	-14933
▁गोलरक्षकको	-14934
▁संस्करणहरू	-14935
▁सान्दर्भिक	-14936
▁उत्परिवर्तन	-14937
▁कम्पनीहरूले	-14938
▁नियन्त्रणको	-14939
▁प्राधिकरणले	-14940
▁राष्ट्रभाषा	-14941
▁स्कटल्यान्ड	-14942
▁संविधानसभाको	-14943
▁स्रङ्गत्ब्सन	-14944
बृ	-14945
किब	-14946
थमा	-14947
थ्य	-14948
न्ग	-14949
बली	-14950
हिल	-14951
हूँ	-14952
िमे	-14953
िरस	-14954
ुके	-14955
्रक	-14956
▁खग	-14957
क्ष्	-14958
द्र्	-14959
न्जी	-14960
पावर	-14961
म्ची	-14962
यनमा	-14963
यिका	-14964
लाइट	-14965
लेखा	-14966
वतार	-14967
वन्ध	-14968
सीका	-14969
्सले	-14970
▁अचल	-14971
▁एअर	-14972
▁खति	-14973
▁खिल	-14974
▁गां	-14975
▁जुर	-14976
▁डुम	-14977
▁तीस	-14978
▁नमो	-14979
▁नरक	-14980
▁निस	-14981
▁पश्	-14982
▁बख्	-14983
▁वुड	-14984
▁शोभ	-14985
▁सदै	-14986
▁हबि	-14987
क्सिम	-14988
नगरमा	-14989
म्सको	-14990
रबन्द	-14991
वाटको	-14992
ाउँने	-14993
्राले	-14994
▁क्यू	-14995
▁गइन्	-14996
▁चल्न	-14997
▁जाभा	-14998
▁ज्यू	-14999
▁टोनी	-15000
▁ट्यु	-15001
▁परित	-15002
▁पूर्	-15003
▁बलले	-15004
▁बेगम	-15005
▁मावि	-15006
▁मेमो	-15007
▁मौरि	-15008
▁रोजा	-15009
▁सूचक	-15010
▁होल्	-15011
दण्डको	-15012
भूकम्प	-15013
मोनिया	-15014
▁अचम्म	-15015
▁अनेकौ	-15016
▁आर्सन	-15017
▁कथाका	-15018
▁खसेको	-15019
▁खाल्ड	-15020
▁ग्लास	-15021
▁ग्वाल	-15022
▁चाइना	-15023
▁ज्याम	-15024
▁तहसील	-15025
▁न्वार	-15026
▁प्यान	-15027
▁प्रेत	-15028
▁बोगटी	-15029
▁मधेसी	-15030
▁मसिनो	-15031
▁मेमोर	-15032
▁राँगा	-15033
▁सिरहा	-15034
▁सुन्त	-15035
▁सुमेर	-15036
▁ह्रास	-15037
ानात्मक	-15038
▁अङ्कीय	-15039
▁इच्छुक	-15040
▁उद्घोष	-15041
▁कमाण्ड	-15042
▁छालामा	-15043
▁तस्बिर	-15044
▁देखेका	-15045
▁नामलाई	-15046
▁निष्ठा	-15047
▁प्रिन्	-15048
▁फैलियो	-15049
▁बोलाएर	-15050
▁महासंघ	-15051
▁यद्यपी	-15052
▁रिचर्ड	-15053
▁विधिको	-15054
▁विश्वस	-15055
▁कलाकृति	-15056
▁कानुनमा	-15057
▁चितवनको	-15058
▁दर्शनका	-15059
▁पहाडहरू	-15060
▁प्रत्यय	-15061
▁फौजदारी	-15062
▁भरपर्दो	-15063
▁विवादमा	-15064
▁सदस्यले	-15065
▁साइप्रस	-15066
▁अनिश्चित	-15067
▁आशीर्वाद	-15068
▁एतिहासिक	-15069
▁क्षेत्रा	-15070
▁खुट्टाको	-15071
▁देखाइन्छ	-15072
▁धर्मशाला	-15073
▁धितोपत्र	-15074
▁नोबेम्बर	-15075
▁पर्यटनको	-15076
▁पुस्तकका	-15077
▁पूर्वतिर	-15078
▁प्रभावमा	-15079
▁मन्दिरका	-15080
▁मुद्राको	-15081
▁वरिपरिको	-15082
▁वस्तुलाई	-15083
▁सद्भावना	-15084
▁कीर्तिपुर	-15085
▁पारस्परिक	-15086
▁फ्रान्सले	-15087
▁भण्डारीले	-15088
▁माओवादीले	-15089
▁व्यापारीक	-15090
▁सम्झौताको	-15091
▁स्ट्राइकर	-15092
विस्तारसँगै	-15093
▁कार्यहरूमा	-15094
▁त्रिचन्द्र	-15095
▁बाल्यकालमा	-15096
▁छात्रवृत्ति	-15097
▁जिल्लाहरूको	-15098
▁पर्यटकहरूको	-15099
▁पत्रकारिताको	-15100
▁प्रयोगकर्ताको	-15101
आफ	-15102
इङ	-15103
उमा	-15104
बरा	-15105
बुङ	-15106
ेरु	-15107
▁छः	-15108
▁टम	-15109
उँदो	-15110
गेका	-15111
णीमा	-15112
फ्रे	-15113
ब्रह	-15114
वाहा	-15115
ष्टर	-15116
▁आपू	-15117
▁ओरि	-15118
▁ओलि	-15119
▁कमन	-15120
▁टिट	-15121
▁ढंग	-15122
▁नात	-15123
▁पवन	-15124
▁बजर	-15125
▁भुत	-15126
▁भुव	-15127
▁मगध	-15128
▁यमन	-15129
▁लेप	-15130
▁अचेल	-15131
▁उसका	-15132
▁खोजे	-15133
▁घरका	-15134
▁चलाई	-15135
▁झुका	-15136
▁डाडा	-15137
▁डुबा	-15138
▁धनको	-15139
▁भाकल	-15140
▁मारी	-15141
▁मीरा	-15142
▁यहीँ	-15143
▁रहयो	-15144
▁वार्	-15145
▁विमो	-15146
▁संकल	-15147
▁सतलज	-15148
▁१८८२	-15149
▁१८९५	-15150
निर्भर	-15151
मार्फत	-15152
यात्मक	-15153
▁कुष्ठ	-15154
▁खेलेर	-15155
▁गरिदै	-15156
▁गरीबी	-15157
▁झल्का	-15158
▁दिइन्	-15159
▁पाइन्	-15160
▁पुटिन	-15161
▁फ्रेड	-15162
▁बिबाह	-15163
▁बेहोर	-15164
▁ब्वाइ	-15165
▁मजबुत	-15166
▁मांसप	-15167
▁माइती	-15168
▁मिजोर	-15169
▁योगको	-15170
▁सरेको	-15171
▁सिंजा	-15172
▁सुशील	-15173
▁हराएर	-15174
▁हाकिम	-15175
▁होस्ट	-15176
िन्थ्यो	-15177
▁अलिकति	-15178
▁आदिबाट	-15179
▁चैतन्य	-15180
▁तराईको	-15181
▁नेयोमी	-15182
▁बाँधेर	-15183
▁बोगटान	-15184
▁रानीको	-15185
▁लगाइने	-15186
▁सन्यास	-15187
▁आवृत्ति	-15188
▁आश्वासन	-15189
▁कश्मीरी	-15190
▁क्लबहरू	-15191
▁त्रिशूल	-15192
▁धुलिखेल	-15193
▁प्रेमको	-15194
▁वर्षभरि	-15195
▁सिंहासन	-15196
▁हिरण्यक	-15197
▁हेटौँडा	-15198
▁अध्ययनले	-15199
▁उत्रिएका	-15200
▁दर्शकहरू	-15201
▁निकालेको	-15202
▁पर्दथ्यो	-15203
▁प्रतीकको	-15204
▁भारोपेली	-15205
▁रोगहरूको	-15206
▁शहरहरूमा	-15207
▁स्टेडियम	-15208
▁क्षेत्रिय	-15209
▁प्रयोगबाट	-15210
▁मान्छेलाई	-15211
▁सिफारिसमा	-15212
▁टेक्नोलोजी	-15213
▁भविष्यवाणी	-15214
▁सङ्खुवासभा	-15215
▁दक्षिणपन्थी	-15216
▁परिस्थितिमा	-15217
▁साम्राज्यमा	-15218
▁राज्यलक्ष्मी	-15219
▁विश्वयुद्धमा	-15220
▁इलेक्ट्रोनिक्स	-15221
अप	-15222
टप	-15223
पस	-15224
ग्स	-15225
जूद	-15226
पतन	-15227
फेन	-15228
बिच	-15229
मेज	-15230
लिश	-15231
वाड	-15232
वेर	-15233
षाण	-15234
सीन	-15235
हरे	-15236
ुलु	-15237
्डी	-15238
्थे	-15239
▁कच	-15240
▁हथ	-15241
चालक	-15242
त्रे	-15243
न्स्	-15244
बाइट	-15245
बाजी	-15246
यनको	-15247
लाना	-15248
ेकको	-15249
▁उज्	-15250
▁एकड	-15251
▁एमए	-15252
▁गजे	-15253
▁घुस	-15254
▁जमद	-15255
▁दरभ	-15256
▁बाई	-15257
▁भाट	-15258
▁माँ	-15259
▁याइ	-15260
▁शकि	-15261
▁होट	-15262
गोपाल	-15263
पुञ्ज	-15264
पृथ्व	-15265
ियनमा	-15266
ुरीको	-15267
ेसनमा	-15268
▁इकाइ	-15269
▁कन्द	-15270
▁कृषक	-15271
▁चिली	-15272
▁पीठो	-15273
▁बासु	-15274
▁बैङ्	-15275
▁भागे	-15276
▁भोटो	-15277
▁मतदा	-15278
▁महरा	-15279
▁यापर	-15280
▁लाईन	-15281
▁लाली	-15282
▁विकट	-15283
▁शिका	-15284
▁हाली	-15285
न्तकृत	-15286
र्जाको	-15287
संग्रह	-15288
संहिता	-15289
सङ्ख्य	-15290
्याक्स	-15291
▁आगजनी	-15292
▁एपीएफ	-15293
▁कमिटी	-15294
▁कुमाल	-15295
▁खलिफा	-15296
▁चौतार	-15297
▁जगदीश	-15298
▁जिर्ण	-15299
▁डेभलप	-15300
▁तिरको	-15301
▁दुलाल	-15302
▁न्याउ	-15303
▁पदभार	-15304
▁प्लेस	-15305
▁भाष्य	-15306
▁भैंसी	-15307
▁येसको	-15308
▁रक्षक	-15309
▁वेदका	-15310
▁हाइकु	-15311
राचार्य	-15312
ेम्बरको	-15313
▁अनुभवी	-15314
▁अफिसमा	-15315
▁इलामको	-15316
▁जबसम्म	-15317
▁दुवैमा	-15318
▁देख्ने	-15319
▁पख्तुन	-15320
▁परस्पर	-15321
▁फलामको	-15322
▁भर्जिन	-15323
▁भाइहरू	-15324
▁मिश्री	-15325
▁विधिवत	-15326
▁सक्छौं	-15327
▁सक्नेछ	-15328
▁सम्पति	-15329
▁सिँचाइ	-15330
▁अग्रवाल	-15331
▁कारणहरू	-15332
▁थापाथली	-15333
▁दुश्मनी	-15334
▁पहिलेका	-15335
▁मंगलबार	-15336
▁रहस्यमय	-15337
▁वेदव्या	-15338
▁सर्वत्र	-15339
▁सुपुत्र	-15340
▁अविश्वास	-15341
▁गुरुत्वा	-15342
▁परोपकारी	-15343
▁पुरुषहरू	-15344
▁पुस्ताको	-15345
▁प्राणीको	-15346
▁ब्राम्हण	-15347
▁माध्यमको	-15348
▁सामान्यत	-15349
▁हजुरबुवा	-15350
▁केन्द्रका	-15351
▁ग्रन्थहरू	-15352
▁चक्रवर्ती	-15353
▁पञ्चायतको	-15354
▁पदार्थहरू	-15355
▁मध्यवर्ती	-15356
▁यान्देक्स	-15357
▁रिपब्लिकन	-15358
▁सङ्गठनहरू	-15359
▁सार्वभौमस	-15360
▁स्टेशनहरू	-15361
▁स्वयंसेवक	-15362
▁आदानप्रदान	-15363
▁रोनाल्डोले	-15364
▁शताब्दीदेखि	-15365
▁सूर्यबहादुर	-15366
▁स्वास्थ्यको	-15367
▁विक्रमादित्य	-15368
▁इन्टरटेनमेन्ट	-15369
▁इतिहासकारहरूले	-15370
▁महानगरपालिकाको	-15371
गौ	-15372
बडी	-15373
मोड	-15374
विस	-15375
[...]
